Body
ĠTHESE
aur
name
ĠSwitzerland
Ġperiodic
Ġinstalled
Ġcampaigning
uthering
Ġundermined
Ġlyric
ĠCf
BT
ĠEarly
3503
Rosa
Ġboar
ĠWheat
Ġtheatrical
Ġ1823
walker
ĠWhoo
Corpor
,âĢĶ
3739
Ġpitches
Ġgrade
ogr
6187
2217
Ġregard
Ġfant
1530
3700
ograp
177
5178
tale
a
Ġsexy
Ġsofa
aded
2710
Ġdeliverance
Ġtripped
ĠFre
IP
1373
small
Ġpermanent
Ġtremend
ĠLyons
8008
vings
Ġlivestock
initely
7483
3158
edin
conv
ĠSat
Persian
ĠPrescott
Ġprol
3098
Ġflaming
ĠENG
emre
mine
like
Was
Sir
Ġoperational
Ġexpired
above
ĠStalin
2488
life
Ġjim
Ġbypass
Lloyd
Ġbetrothed
urch
Ġdetail
4256
Ġgorgeous
fruit
2325
3413
Ġcareful
ĠBrowns
Ġstart
ĠCardiff
Ġmeals
1085
ĠWrest
Ġaluminum
6414
6119
rator
ĠAssyrian
cop
Ġmelody
Marriage
Wasat
ĠAA
Ġ118
ĠSheep
Ġsmoking
ĠRocky
Ġexplored
whe
atchewan
Ġquality
othered
Ġouting
ĠLairembi
3430
namely
Ġartificially
Ġgracious
Peter
ĠAD
uria
ĠCircus
Ġdividing
ĠResort
Action
Ġrelatively
Sam
por
Dom
Ġpremise
1944
Ġvendor
Ġretire
Term
Ġentertainer
Ġwhere
Ġsatin
bediah
Ġblueberries
asmuch
Ġrecipro
ĠWeaver
231
Ġwhen
icked
300
Mars
7935
himself
gging
morrhage
Cover
6569
Ġbeliefs
ĠWireless
ĠKensington
ppen
Ġamusement
Ġparliament
2391
Ġalcoholism
Ġcosm
Private
Ġservic
ĠFancy
Cant
loo
Ã©nÃ©es
Frederick
Ġnarrow
Ġinconvenient
ĠOrd
ĠShey
Ġleaps
fft
Ġles
PÃ©
ATTER
4833
ĠImm
ĠJohann
hik
ĠPortsmouth
inations
ĠDodgers
Ġverified
rigg
ood
plete
Ġpunches
Ġbenefited
8721
Ġabortion
Ġboston
Ġpea
doc
Ġlent
1570
Ġrecommendation
3331
ctors
ĠJudy
Ġunexpected
Ġgarments
kefeller
idward
Ġomen
Ġhammers
Ġimplicitly
222
Ġchoreography
Ġcharity
igaku
Han
Ġfishing
ĠHAVE
43
Ġdining
upi
Ġwhispering
ĠTURN
ĠProtocol
Ġconstitutional
Ġbowled
ĠBrad
Ġcricket
Ġpsychologist
Brit
Ġstamps
5823
Ġyears
passing
Ġmasterpiece
Lock
hing
ba
ĠKhor
ĠLies
yellow
GU
Ġmad
7772
ĠChev
ĠHAPPEN
venant
Ġnationally
icago
1272
1227
Ġgraciously
Ġimplementation
âĪĴ
Ġkeeps
Ġfoster
aleh
Ġdreadful
78
7605
pleasure
Ġdiarrhea
coats
8184
7156
Ġmessaging
check
Ġsupporters
Ġglistening
Ġpand
ooper
Ġfidget
ĠRAM
rotope
Î
6159
iors
8448
Ġcockpit
Ġcone
gedies
vity
Woman
Ġrelieve
Ġtenants
Ġoranges
oan
ĠAffairs
ĠBeecham
Ġhonk
physical
ĠVladimir
1883
Betty
Ġmessage
Ġpleased
outheast
2605
1193
astic
wning
Ġsurprisingly
Ã³n
Ġsurround
Ġliver
Killing
ĠJapan
Ġmagazine
Ġcombination
Ġmars
uchar
Ġdefenses
soci
âĻ
Ġfutile
Ġpossum
Ġnearby
ĠMangrove
Ġambiguity
erva
1287
8495
4869
Ġfurniture
ĠMadagascar
Ġhugely
ĠBerlin
Ġfolds
Ġnipp
Å«ry
Hz
oubtedly
3879
Ġpocket
Ty
Might
5085
3400
Ġ62
Ġheather
Ġdisagre
achable
ĠHolocaust
Ġvegetables
ĠRuth
Ġfinancial
acking
Ġparade
Lay
4094
complete
Ġspaceship
6227
Ġtrombone
ĠTrob
ĠOsiris
Ġtrotted
Mmm
9162
ling
Ġhaw
ĠVolume
Ġcharitable
WP
Ġeasy
4236
Ġpreaching
ĠKick
8874
Ġbravest
2463
ipa
ĠShana
emens
iod
AFTER
ĠMansur
Ġlikeness
Ġate
world
Ġdiscount
ĠCollege
8881
Ġadjourn
mira
Ġrooms
251
Dark
5546
Ġpick
Ġexternal
Ġidentification
Ġexercise
government
4749
867
ĠSchwarz
ĠSquidward
Ġcoaster
ropriate
Ġbeauties
Ġorchard
Ġcomforted
Ġmons
Ġdemonstr
oscopy
ition
Ġchurchyard
Historical
4726
MC
Ġempress
Î¤
Ġadequately
ĠBoss
agar
Ġdaw
255
Ġcompeted
1496
Ġarid
bas
Ġother
Ġeating
undred
6994
Ġkindergarten
Ġuneven
437
4895
Ġsubspec
rion
ĠBlackhawks
Ġcoming
hen
ĠDie
Ġreading
Ġsulf
Lucky
ĠKem
ĠMeete
Ġdestroying
Sem
Ġgra
Ġconference
Ġtray
Ġprefers
ĠEuros
evolution
ammable
ĠCounter
Ġshuffle
ĠJosie
iversal
In
Ġanymore
2770
Honey
Screen
1106
Ġdefic
Ġinstruct
iminal
ĠSon
Ġov
ĠSecondary
eled
ĠPing
1946
5372
Ġdangers
2347
7039
996
8363
8292
Ġharbor
Ġrelax
à¦¾
Ġrecognising
Ġcultural
Ġwinning
2051
Rachael
Ġkeen
izon
igg
Ġopt
pointed
Ġaspirations
Ã§
Bright
icking
8233
Manu
Xinlu
amin
199
ĠDepartment
bel
1387
bourg
Pos
Ġwildlife
7871
ĠWars
ĠSicilian
Yanke
804
Ġbrook
always
Ġquiz
6192
fast
auldron
Ġcreaking
phan
1353
Ġgowns
ĠItaly
Ġph
Ġnicest
ĠSinatra
ĠAy
Sen
Ġarena
iseries
Ġintern
ĠBergen
ĠRita
Ġelectrical
igne
Ġexercising
Ġstrapped
Ġfreezes
Ġnotic
ĠPlayer
Ġcount
ourned
Ġisohedral
Ġtitanium
With
Ġanatomy
Ġtweet
2628
Ġanime
Ġwall
Charlie
7266
p
ĠCros
Ġattachment
Ġlifeboat
Ġ214
taker
Ġhumming
ĠDrones
Ġconsumer
ĠYea
Ġcharacteristic
Ġsalute
Ġposs
Ġcontext
Ġfile
Ġfro
chen
Ġentertainment
Queen
oped
2843
Ġscr
Ġdemonstrated
role
ĠKilshaw
Ġfew
Ġcorruption
ĠSuzuki
ĠGranville
chal
Ġreturning
ĠChes
8997
iveness
Ġseeks
acity
Ġarresting
Ġalso
lay
hew
966
Ġentry
Ġnests
Ġprobe
ĠErie
266
Ġlos
Ġdella
Ġintelligence
4814
Ġdraped
637
pack
4001
Ġshrunk
APPY
pet
Ġinwards
ĠOttawa
Bra
ĠWhitfield
Ġaback
ochkin
oderm
Kore
ĠTha
2530
Ġlaptop
974
Ġextensively
Ġdairy
Ġseduced
Ġguitars
Ġanticip
Ġenabling
ton
3363
90
ĠStudy
Ġrouting
ĠLorentz
ummings
r
ĠâĢİ.âĢİ.âĢİ.
mag
convex
Ġcaves
Ġcapability
321
Ġposted
4278
Ġgifted
6782
ĠTypically
economic
Ġviewer
ĠBa
ĠCold
911
Ġworthy
ĠCome
2372
5480
ĠJed
Ġwhipped
ĠFlint
Ġunbroken
Ġimpartial
3738
Alpha
2896
Liz
ĠSark
Ġ229
ĠDa
6997
ĠDiaz
Ġtonight
ĠChampions
ĠFurthermore
ĠCommunication
Ġexter
ĠQuestion
ĠPuerto
history
Ġspade
Ġlocations
Ġcurved
kat
2100
Ġspree
"(
Ġanytime
Ġtrue
Ġparadigm
5207
Metal
7680
Ġsubstitute
Sat
4807
Ġ108
fired
Ġfinn
Ġbump
Se
ĠMountain
2887
Ġstained
2556
ĠJulia
Ġcontributor
Ġhighlighted
SEL
Ġmerchants
Ġappreciate
Ġbegged
ĠProphet
6357
Ġlimestone
mster
ĠFin
stru
ĠKerala
ĠDAY
add
ĠGrail
Ġabsor
Birds
ĠJersey
6145
1257
ĠShabbat
inde
Ġwe
ĠY
ĠCran
ĠHollywood
Ġnumb
Ġfabulous
7337
itoes
dd
oway
Ġproceedings
atholic
5569
i
icket
Ġunman
ĠAgain
ĠDOES
entered
5788
ervations
249
adian
Ġnothin
sang
Ġloosened
Ġco
ĠIss
Ġbirdie
Ġdiscrimination
326
Ġtril
uncle
Ġpassionately
Rice
ĠArchives
Ġce
ITS
ĠSturge
2696
itt
hamed
Ġposition
ĠNevada
excellent
433
ees
Ġboycott
Ġcustard
ouch
Ġjill
mummy
Ġknows
ĠIllinois
Ġreview
Ġeternal
ĠMartin
Ġtanks
8802
Ġdreaded
Ġdig
4321
Abs
Ġyarn
icide
oth
Ġtested
ĠYorga
Ġselection
RRB
anth
ĠFort
Ġcacao
6279
Ġcontinued
enser
ĠArrange
runner
KE
ceptible
Ġassure
1992
alk
1791
1139
enne
osophy
ĠDominic
6906
6793
erals
Okay
Ġbabys
2882
Ġkilos
ouge
ĠAndroid
ijah
Ġcharacters
296
ĠArabia
Ġfluids
Compared
Ġromantic
Ġpresided
Ġsteadily
ĠBt
Ġbowls
ĠWouldn
928
iferous
ĠFactory
ĠFreddy
Ġmatrices
540
Ġdeveloping
Ġasteroid
500
ĠVernon
lim
Ġmas
209
Fact
Ġbeverages
Ġurged
Stuff
Ġdared
aulfield
2510
onomy
Ġrisking
Anything
Ġrefuge
7329
urned
Ġappointments
Ġwail
negative
work
Ġpropos
Ġtheoretical
ĠClaude
Ãģ
Ġtoil
ĠNeighborhood
SR
ĠJoel
Ġproduces
saw
ĠJafar
Ġwhistle
Ġresolution
Ġcrayon
Ġmammals
8872
Ġblu
Ġapproximately
Secondly
Ġfred
7155
Ġmortality
Ġlobe
crash
orpe
OFFS
ĠGrace
Ġmum
712
ĠKha
Ġdisturb
ĠGlass
Ġconnecting
ilia
ĠKisumu
ĠContemporary
Ġharder
Ġmell
Ġsymbolism
ĠOn
ĠQU
Ġacquaint
7197
Ġexhausting
5559
defined
Hit
Ġfucker
ĠA
Ġfountain
ĠCourage
ambique
Ġduct
Ġequival
prise
845
INK
ĠHearst
ĠHail
ĠCM
Ġutil
Ġreciprocal
Ġbegs
practical
Ġquadrilateral
ĠReed
empt
Ġcompels
Current
4810
Ġpersonalities
Ġadmitted
Ġ170
vonne
Ġsnub
1136
zegov
Ġsuccessors
Track
UES
Ġtaller
6430
3302
Ġ[?]
lor
Ġmit
ĠCurt
599
7730
Ġprostitute
Ġgruff
Ġbureaucr
ĠEnlightenment
Ġteams
Ġhonestly
morrow
isan
Ġtoken
ĠTanner
Ġmysteries
tain
8095
Ġgrizz
Ġmelissa
ĠOt
Ġtheory
cellent
ĠGene
Ġelements
3434
GEORGE
Delta
5722
ĠXia
Ġgeographically
2091
Ġantid
ĠSawyer
Ġthylac
Ġtestimony
Ġdoub
655
Ġbarks
ammu
con
Ġpollute
ĠdÎ¿n
owness
phrodite
Ġ13
Ġconfident
Ġveter
Susan
8276
Tem
heart
ĠWra
Ġparole
ĠStrauss
ĠNothing
ĠOoh
Ġwindmill
Ġbarren
Ġsketches
Ġladies
ĠRINGS
Ġtransplant
Ġdetermining
Mag
uchs
Ġinadequ
Ġashamed
ANT
Ġpsychological
1606
Ġgrowled
7190
Ġlegislatures
ĠJose
Ġepidemic
Ġknown
ĠEarl
ĠAud
Ġdetailed
istinct
Ġfield
Ġstrangely
Ġunderlying
Ġpome
ĠAppeal
Ġkrill
ozy
ĠEffect
Ġlarvae
Mand
four
coln
Ġonto
8839
ĠBrent
Ġremed
ĠSiege
ĠConservatory
Log
Ġsocks
arth
lore
4312
ĠTendu
ĠHond
Ġrefresh
Ġstereotypes
nearly
2911
46
Ġchained
Ġfence
Ġteller
onica
ĠTransit
Ġsheer
ATOR
Ġpresidency
5793
ĠPortal
ha
Ġworry
escent
ukemia
ĠIw
going
odo
bian
ĠRad
5248
Ġsniffing
jo
inae
Ġmanages
ecahedron
ador
Certain
Ġsmoothly
3449
1818
ĠNobel
1648
Ġdonations
uis
Ġass
ĠNintendo
Ġtimeless
Maria
Ġdepends
Ġindicated
8134
Ġconsolidated
essica
reth
3457
7387
Ġarrogance
abbit
ĠBetty
Ġaer
1615
assy
amen
ĠChurchill
4294
vert
4714
akers
2490
Ġfranch
Ġsinister
2793
2669
3257
Ġideological
ĠOccident
Ġpluck
Ġthickly
try
Ġblooming
ĠCHR
Ġpeac
Ġfarmhouse
4425
Ġagriculture
Ġcaste
irds
Ġenclosure
ĠSom
baugh
MA
5435
ĠAlbert
Del
Trust
Hy
moment
2858
ĠAcc
Ġdumping
8000
3744
5760
Conf
Ġscarf
Ġknockout
SpongeBob
ĠCarboniferous
renn
Ġconstellation
ĠMiranda
aned
rus
ĠFruit
2967
ĠLama
8381
ĠPort
Ġlic
Ġhamlet
5859
Ġpriest
ĠJerome
Ġheath
Ġinventory
ĠAct
Ġhorseback
ĠProposal
Ġcm
Train
196
ĠIncas
December
6370
ĠFLO
7241
hana
Ġnour
ĠMitch
sson
Ġcomplement
Ġcorrections
Ġflapped
camp
6171
ign
ressed
7780
ĠNovember
ĠVak
Ġaudible
Ġpredicted
Ġoperations
etry
7376
Ġgymn
erd
Ġentered
6834
Ġchatting
began
Ġcapac
ĠBuffalo
6773
iros
ntz
Newton
Ġpackaged
Thereupon
Based
ĠGap
Next
ĠME
ĠClarence
eterre
].
Ġmade
Shea
ĠEducational
ĠRogan
Ġprogrammers
6301
8272
Ġtechnically
Ġconceptions
ouring
O
Ġhonored
ĠRacing
Im
6385
Ġ1889
cribed
leased
ĠTot
Ġele
Erm
group
Ġclassical
1481
1506
Ġruff
acs
ĠOTHER
ĠCry
ĠâĻªâĻª
ĠGaelic
gor
ĠHighway
4976
4410
Ġrotten
2164
ĠKahn
6480
Vit
Ġsecretaries
4135
ĠCarras
ĠJenkins
opods
ĠCarbon
Ġperpend
Nos
Ġcommand
Ġgradually
Ġillustrated
Ġwhack
Ġdisciplines
orrow
Ġratio
3860
ĠLaws
Lance
oma
6618
ĠBitch
Ġbombs
Ġmet
Ġskateboard
Ġ1849
Ġcous
2354
Ġwhistling
ĠMRT
ĠMats
ĠHonduras
Ġcalculus
ĠVenetian
umed
IJK
ma
ptical
Ġsleep
roy
Ġlugg
ĠTitan
umberland
ĠBeatrice
6830
dust
1863
ĠLand
7593
ĠFen
Ġlicence
Ġrequest
ĠVin
Ġsilently
7201
Ġalternative
Ġaching
geant
6503
Ġdashing
standard
ĠMoore
ĠCox
Ġfeudalism
Ġsplashed
ĠSach
inburgh
Ġfamily
232
ĠTra
Rescue
Ġrecruited
Ġconvex
ĠFederation
ĠEngineers
janoviÄĩ
Ġrecursively
Footnote
Long
Ġassemblies
Ġresonance
Ġintrinsic
Ġrubbing
ida
)
mal
ĠEdinburgh
Ġshave
elz
3711
ĠRav
ĠPearson
ĠSimpsons
Ġungr
Glad
ĠPiet
ĠBean
org
anderb
Ġpathological
ror
2047
7001
IER
ĠBavarian
Ġvolcanic
Ġcycles
Ġavatar
Ġtruck
ilst
ĠFalcons
Ġrisotto
ĠHaraoba
4870
iotic
nd
624
Ġdevices
Gilbert
1974
Ġdust
ĠLavender
urrently
ĠEither
Ġwaitress
Ġdaft
ĠAbout
Ġuniverses
Tay
Ġlatt
equal
Ġcertainly
Ġdiscourse
Ġbackward
ackers
oger
3576
Ġfirearms
feld
Ġvodka
issue
ĠErnie
itation
ĠKas
Ġnegl
Ġgap
429
2509
Who
8346
mem
died
1948
4710
Ġabyss
Ġprisms
Raise
895
Ġsneered
Ġsandwich
udders
ĠVicky
1800
Ġcrackling
Ġdrama
Ġfar
Ġdisliked
Ġimpression
Ġadjustments
4601
aca
4457
Ġkarate
Ġcomma
ĠHyo
ĠCheers
1925
1638
raw
á»
ĠSV
7320
Ġinfancy
Ġengaging
SOLD
Director
ĠDominican
esty
gra
8743
4388
aye
ĠStudents
Ġsands
ooks
Ġbuilder
Ġtacky
epsi
ocol
Ġ1981
ĠCommander
Ġ111
Ġbonk
Ġswitched
load
ê¯
Ġcompar
igious
1232
6720
ĠLATER
Ġble
anagan
Ġstudent
Noll
7139
took
Ġaffiliated
Ġblaze
Ġvil
Ġflinging
1113
Ġobscene
ĠBug
Ġreformed
ĠJing
igator
Ġsum
Ġimportance
ĠDrive
Ġinternational
pinephrine
Ġcaptures
Ġrat
Ġagreeing
Ġcouples
8185
Ġbeckoned
1110
Thou
raf
ĠRoth
Ġel
ĠTanis
Ġshelves
6607
Ġglitter
Ġstill
ÅŁ
4132
Ġtruer
Ġresponsibilities
Ġcontrad
His
Ġworlds
3366
4131
Ġseafood
ether
Ġenhance
7120
Ġfixes
Ġcandidates
7212
yi
Ġsymbol
Ġ1939
ĠEngel
CUE
1691
752
Ġerrors
Ġwrist
Ġstickers
Ġfiction
1049
Ġsystem
Ġprofessionals
achim
ĠPalest
atra
3414
Ġthousands
osures
Ġavocado
Ġscares
Ġset
8763
Normandie
ĠJerk
Ġelimin
6570
3759
Ġsacred
Ġturtle
Dean
Ġlax
ĠMarcia
ĠRabbi
Ġinvoluntary
Ġwarned
Ġpadd
5190
Ġchocolate
1990
Ġbit
584
oman
Ġcorner
ĠBay
rugu
Ġembedded
Ġlavish
NR
Ġlandfill
otic
ĠNick
2733
Ġinterchange
ĠAlberta
6875
owitz
695
3550
ĠVIETNAMESE
5580
Ġcoron
Ġnationalist
Ġeve
Ġrecited
ulness
6413
conception
ko
4694
1271
261
ĠAbbÃ©
imar
Ġeliminating
Ġopposed
ĠHouse
ĠProv
Ġsingers
8795
Ġwaterfall
've
Ġantiseptic
Ġslimy
bach
iÄĩ
3131
FC
Monsieur
ĠMathem
Ġadmirable
Jonathan
le
Ġvows
olving
4847
Ġvolatile
Dim
Ġrich
Ġmolecules
ĠNoble
Ġdozens
Ġattach
5411
Ġgoat
ĠClar
Lionel
cc
Ġsleepy
ĠHare
7196
ĠNinomiya
grin
ĠCore
6075
Foot
Ġcater
ĠTrina
cer
issipp
Ġkillings
Ġmembers
oved
woman
ĠMigs
Ġ1722
9140
Bon
1589
7979
riter
Ġreservations
ĠSymphony
ĠBari
ĠBeat
8549
ĠUSD
eses
8467
ĠPerez
Ġrehab
ĠCarlisle
ILE
Ġmeadows
ĠWilde
Ġsight
Ġprovide
Ġthrows
riment
Scream
Ġshook
Ġcursor
Ġgorilla
7379
Horn
Antigone
wr
ĠDill
Ġfugitive
wind
Ġ1850
5389
ĠSamara
ĠLust
Ġholding
Ġhosting
Ġpreval
ĠÃĹ
Marion
Ġwireless
6482
Ġgon
Ġacquaintance
Ġrevolt
ĠBurundi
REE
CLARE
1460
arrant
ĠCleopatra
Sweetheart
Ġwriting
ãĥ«
ch
Ġmoving
141
Ġrugby
7857
jani
ĠDen
ava
carriage
ĠTeacher
ault
Ġromantically
2475
Ġhelping
actor
attlesnake
Ġsir
Ġharmon
atsu
Hall
omber
ĠJak
1520
ĠKol
990
Ġuns
7480
8579
ĠCristina
1919
Ġhastily
MD
Boston
ê¯Ĥ
stud
abi
Ġpac
918
¿
ĠPyrÃ©nÃ©es
ĠSalz
Ġintox
8355
ĠMad
tsville
Does
7960
Ġkit
umble
ark
289
bread
Ġemigrated
Series
Ġinvent
shot
Ġcommissioned
avil
ĠDeep
ĠHus
Ġadventurous
5672
ifton
venlock
Ġcannon
flow
1091
Ġbassist
Ġchucked
Ġmama
Ġsubdiv
Ġdestro
4412
beyond
Ġda
Ġmental
oids
Ġconsulted
Iron
Ġsuperficial
Steve
1839
oj
Ġclients
rified
3237
5662
Ġwriters
ILY
7124
Ġahold
Ġscratch
ĠCuz
ĠYOUR
ĠReservoir
ĠBuc
ĠLeiden
Ġlowers
Ġceramics
ĠShar
Ġyogurt
oucester
ĠHibbert
Ġwhy
Ġwhore
eryl
Ġcheer
7287
ĠLAD
uzi
Ġtommy
771
Ġsanta
Ġdifference
ahua
opin
ĠSalman
8430
557
Ġrice
eegan
ĠNash
ĠBeautiful
Ġmember
Ġrescue
5734
OL
Ġknuckles
wanski
ve
8090
ĠWorkers
ĠVlad
reets
ĠNatural
Ġdepot
ĠMemphis
5130
Ġheartbeat
Ġrelig
ĠRobin
Sin
Ġarranging
ĠErik
Ġrelease
Ġrejo
Ġpublicly
ĠPresbyter
8480
Ġdivinity
Ġnomadic
kered
min
eville
ĠIot
ĠBag
ĠVishnu
hury
unn
Ġpinnacle
ĠAmnesty
guy
yeo
Ġmeasles
Finebros
ĠHarvard
Ġdan
Ġimpover
Ġyesterday
ram
Ġunderneath
7270
Ġany
7535
Ġdies
imbledon
Ġvegan
ĠHad
Ġ1902
7294
7764
law
ohs
Ġ81
ĠDale
Ġimmunity
Ġescap
Ġton
sy
Ġdrew
4195
Ġcapabilities
ĠCac
ots
success
Ġvarying
ess
aping
Ġwring
ĠBradley
Ġdale
itional
Ġinfer
Ġrepairs
urally
Ġmarket
1545
3140
Ġfool
Ġgolden
Ġcup
Ġwealth
Green
ĠCroatia
Ġhastened
2419
5344
4458
ĠAlbany
Video
ĠUFC
4728
6327
8402
te
Ġdispers
Ġsave
Earl
Putting
ĠMonty
Cartesian
Ġring
anka
Their
Grab
3391
Ġstain
ĠEuro
Ġmotionless
ĠParable
ĠSuki
ĠWhom
Ġzone
Ġgrandmother
Ġrout
However
ĠKl
Normal
Ġreaders
ĠPP
Ġrecognised
Pav
fi
Ġthreshold
ĠSnow
7298
Sim
ĠAge
6483
Ġcontainers
bÃ©
Ġexplodes
Ġcomprehens
4452
Ġpostponed
ĠPlain
7463
ĠHerzegovina
Likewise
Ġtruthful
Ġoctave
oupe
Ġhunter
Ġlying
Ġbooking
1997
ORE
ĠGestapo
ĠPatton
deck
Ġterm
za
ĠDeal
ĠRINGING
ĠÃĩ
ĠNEC
Ġstraw
ĠTrials
4302
ĠOtt
Ġtrot
Ġtornado
Ġshone
aminodes
Foon
cor
Ġplunged
stals
Ġcountless
Ġumbrella
ĠAugustine
JULlE
ĠSudan
Ġuniversally
Ġslated
Ġprivat
Khal
Ġwakes
PA
2727
Ġmodeling
uk
ty
ĠlÎ¿
Yellow
1273
need
Ġgreenhouse
Ġbackbone
Sweetie
2782
Ġcovered
Ġstoring
5754
urances
Ġrecords
ienced
Ġorang
Sifu
4389
opher
406
storm
arettes
?--
Ã©nez
roof
Ġstriving
ĠEr
).]
5164
Ġlizards
ĠChemical
ĠAustral
exic
nam
Ġnick
508
agad
Grand
Ġdislike
aldo
2104
Ġhaunted
Ġincur
Ġswung
illermo
ĠHid
ĠFriends
ĠGHC
actyl
osing
Ġeventual
Ġtelevision
Ġelectrified
6180
Ġwounded
ĠMassachusetts
Ġ1947
Ġenvision
Ġadvis
2076
Consider
elled
ĠMandas
Ġscumb
668
5477
aeus
1653
Ġalphabet
Ń
Ġsend
962
Ġbusiness
Ġambulance
Ġhesitated
Red
Ll
6593
enberg
Sur
Ġcompared
stri
ĠRomney
Ġ1888
Ġridiculous
jia
5285
ĠSuffolk
Ġdeliber
ĠHa
Ġremedy
Ġdocument
6861
ĠTowers
5611
ĠFandor
Ġroar
Ġstab
ĠRaiders
ĠChe
Still
days
Ġpeople
5637
idelity
Ġtyranny
Ġmissiles
final
ESE
Ġplaus
Î³
ĠAPPROACH
Ġannounces
ĠAlexand
VX
ĠMedia
Ed
1523
mok
Ġintrig
ĠÎ¿n
Ġoverweight
Ġfortune
Ġdisag
Ġartists
Ã¶r
ĠMilitia
ĠForth
defghijklmnopqrst
rosoft
ĠLED
Ġhypothesis
ker
ques
Ġ1911
Ġwithstand
Ġoverhaul
Var
ĠChris
ĠTrent
USE
Ġharbour
uten
Ġsees
ox
Ġrebell
Michel
vered
loe
3825
oÅ¡
Ġtrous
Ġnymph
1985
Anyone
4252
Diet
ies
9212
ĠGrand
ĠKhyber
Ġdirt
English
Ġclient
wanted
Ricky
8832
inge
ĠDiana
ĠCommittee
Ġintroductory
6256
2785
without
3659
Put
Ġharvest
ĠRic
mur
4439
ammy
Ġcloser
Ġphotoc
Ġsimilarities
ĠMel
Ġundivided
Ġ"(
END
Ġalumni
Ġpractitioners
ĠDavies
20
Ġhometown
Ġrecoll
ĠNew
Ġaxes
Ġseren
orney
Ġcivilization
Ġsuccessfully
Ġbumping
Ġcray
ĠStub
ietnam
Ġprescription
ospel
1475
Kansas
ahoo
mans
ĠPooh
Ġbroadcasts
KO
Ġthoroughly
ĠStern
ĠABA
adeshiko
Ġmotorcycle
ĠFIR
Ġfrighten
Ġscreamed
hmm
Ġfo
Ġhappily
criptions
esame
illiant
we
ĠVe
ĠFreeman
clair
Ġtype
ĠBet
6776
Ġirregular
HOW
Ġapprox
ĠChair
Ġdevoted
Ġreproduced
azan
GRO
oll
GB
isty
ares
Ġhissing
long
alph
5439
caps
1581
ĠTrotsky
4463
Ġreincarn
Ġclapped
Ġscare
business
Ġscrewdriver
ĠNak
ĠVikings
Ġdouche
IGHS
Ġcont
Ġthey
Ġblood
Ġsn
Ġclang
ĠRelax
Ġcoco
7371
5219
Ġespecially
ĠPlano
ivated
5311
ĠAlbanian
Baby
Ġwreath
Ġheist
ĠMind
boys
angle
ĠRhÃ¶n
ĠNorman
gang
ĠHIV
ucle
Ġhug
1212
Ġethics
rost
ĠGarfunkel
rimination
Ġtheres
Ġconsequences
ĠIsle
Ġ148
Ġdiploma
Ġsubsequ
Ġunpredictable
ĠRosie
Ġcomforts
Ġvarieties
Ġget
patient
Olymp
Ġparticip
Ne
Ġdefend
Ġsuccess
456
8173
Ġdetectors
æ
ĠOut
Ġregret
Ġpays
Ġobservers
Ġrealms
win
rieve
1386
2924
taking
Ġsparkling
952
Judge
5616
ĠLen
Ġhp
Ġschools
iggle
Ġphysi
Ġproving
Ġome
ahu
Ġbriefing
Ġconversation
Ġninth
ailed
riculum
ĠPerformance
ĠContinuing
psych
ĠXL
ky
ĠManson
ĠHeseltine
grade
Ġflashed
6707
Ġ1942
8075
Ġdipl
ĠNBC
1303
Ġdegrading
Ġtitle
2287
prim
ĠSof
rops
Ġbulletin
Ġpatented
Ġlaughed
Ġwindshield
ĠAdriana
kun
6616
532
uben
ĠCalifornia
Ġhandwriting
Ġexpelled
ĠFrankie
atories
nom
Ġattributed
Whit
4607
ĠGib
9116
Ġbeginners
692
Ġfalls
edo
Ġcrosses
4049
525
tem
Mustafa
hyp
Ġcircl
Ġcho
ĠJud
ĠHenry
sand
Ġsystems
Ġconsumption
ĠSoccer
Theodore
957
reed
ĠREPOR
Ġdisclosure
Ġupside
Ġdiv
ĠCzechoslovakia
ĠTezuka
Ġthrilled
Uncle
Ġviolations
mass
Ġfoes
7127
Ġstressful
Ġknowing
ĠUh
Ġacademic
6900
Ġauto
Ġselecting
reh
uzz
Ġsymmet
Alfred
Ġanthropology
osome
5358
ĠFigg
ibur
Ġchak
Ġup
ĠZande
5427
Ġlistened
Ġassociation
Ġhaunting
)&
4659
ĠAsc
2485
2380
Ġpag
Ġtargeting
ĠWatch
3842
ĠPlaces
Ã¨s
anto
Ġslee
9183
Ġdimensional
ĠRailways
Ġhero
occi
8288
Ġpartners
Room
8434
rom
3275
tin
4286
ĠCP
Ġ"",
ħ
2342
Ġdiscuss
ako
imensional
Kay
Playing
1721
Ġenormously
mns
Vietnam
Ġ126
Ġjoe
ep
Ġinvisible
6264
emporary
Ġgarland
METAL
ĠCirc
ĠGenerally
2833
ĠCommunion
itics
4487
reditation
7288
Ġfel
ĠAnand
ĠNom
Alpes
8863
Ġbitches
Ġtwe
Ġcreator
7507
3341
gina
Gal
ĠDevin
KG
Ġinvo
olutely
ailing
ĠCult
Ġaffecting
emb
Ġ105
Robin
8105
ĠScott
ĠFounding
Ġdru
Ġbaths
Ġflocks
Ġdesigns
Ġpause
2758
Ġwind
2261
Chang
Ġbelieves
essing
Ä
Ġexcused
abouts
appeared
ĠSoul
Ġbehaviors
ĠStover
Ġwatchman
Ġyou
Ġimplemented
Allison
ĠOlm
Ġconferred
Ġtempor
Ġnervously
ĠFirm
3474
ogi
Ġinclusion
7685
Ġpartnered
kobun
Ġtone
ĠWillow
Ad
mental
Ġcombinations
rarian
4427
ĠDenis
ĠBernie
6476
2118
Ġteac
Ġmissions
1733
Sleeping
8995
ilate
lear
Ġhoarsely
abs
954
Ġlocker
Ġchalk
7436
naments
Ġbrutality
1385
6104
Ġpenguins
ĠHelsinki
ĠCollegiate
ĠIet
ĠMental
ĠConsequently
York
Ġbinding
ussion
Loud
ĠMarley
Ġobstinate
Ġfle
1814
Ġsubsequent
Ġfabrics
ĠGunther
Ġbedrock
Although
ĠSher
stanley
ĠMachine
1527
ĠMirza
ĠPolly
Ġgives
1277
ĠSquirrel
Fish
Ġbeheaded
Ġupheld
Ġwhe
Ġpetitions
Part
can
ĠBosnian
Ġgive
rit
Ġfled
Ġcompanies
ardo
595
anne
Ġridden
Ġmassac
ĠCS
Ġdisagree
4401
MUS
Ġsomehow
urd
Ġsins
3184
ĠGum
Rodney
Plus
chie
cock
Ġwerewolf
Ġcollegiate
times
Ġexult
6294
8179
Ġeconomists
1040
ĺ
again
oso
Ġprotesters
5509
Ġsorting
yummy
Ġguitarist
Defense
Ġbeach
Ches
5241
Ġday
Ġhypnot
Ġconfinement
buquerque
Ġenthusiasm
esting
ĠSep
icious
Ġrein
6169
828
'!
4741
Ridge
ĠHindus
uits
5467
ĠMing
lane
Ġwield
Ġmarks
Ġhearts
2010
aith
Ġcrus
Ġdevelopmental
Literally
ĠBrighton
427
ĠUnt
olson
stricken
Ġsterile
Ġguarant
873
ĠMinistry
Ġbricks
Ġapparatus
Ġcodes
Ġtwitch
Ġclambered
ular
inky
2948
6696
ĠUT
3880
marked
Ġblo
15
step
ĠCAM
ĠAbby
Ġdispersed
ĠDynasty
2651
meal
agging
Ġfoundation
2711
4569
ASS
ĠStev
ĠMog
5767
ĠRapid
ot
iddle
Ġdesire
ĠCale
aston
ĠJohan
Ġdespite
Ġsummar
Ġanything
driven
Ġthreatens
ĠPOP
peror
croft
ĠStart
Ġvintage
4596
.âĢĻ
7904
ĠDreams
ĠIns
Ġboogie
Ġunit
5407
Ġseventeenth
Mexico
Ġcorrespond
1043
Ġwater
2738
2238
Ġdrone
Ġpension
Ġdisgu
viv
yg
isle
gic
religion
orous
OUSE
Ġginger
ĠMandarin
tit
Ġbiography
Ġpenguin
ĠHansel
itters
Ġdaytime
ĠJean
Ġmathematically
abhbhai
ĠQa
Mean
EPS
ĠPhar
ady
Ġaddressed
4101
ipes
ĠTEA
ale
Burke
ĠHanson
2716
cella
BOR
Ġtux
ih
2032
north
Ġaccompany
ĠMaha
3096
8059
Ġguarantees
5157
ĠCom
Ġjames
Ġathe
acca
Ġadmit
7839
3192
1311
ĠGlad
ĠMagist
merc
umpy
Ġfaculties
ĠMon
tri
wife
Rein
ĠBrewer
3242
Millan
ĠMedina
Yum
Ġloser
ĠPhys
1150
ĠAlm
Ġscattered
eb
Ġsens
Ġjoin
Ġdemocr
41
arel
bling
ichever
Ġdigit
Ġphe
Ġhelen
ĠUz
coming
2649
enery
bster
Ġfurther
8261
Ġinnkeeper
ĠPiston
Ġsuspicion
8817
Ġaloud
ĠCurrently
Ġoutrage
ĠChosun
ĠGables
Ġarrog
ĠAhi
Ġaltered
Ġeverywhere
Ġinmate
ĠSime
Ġlimits
Ġlanes
...!
ĠImmediately
ĠThing
Ġthieves
792
ĠAna
ĠRockets
Ġpersonnel
Ġcommuter
Ġuntrue
795
Ġgreatly
Ġware
Ġsuited
Ġmaternal
ĠBible
7357
7489
ĠSinger
Ġduring
Ġsignificance
Ġtests
3903
Creat
Ġguns
ĠScripture
sw
ĠTimmy
Ġtransferring
6166
6210
ĠPrad
ĠSydney
6309
Please
ĠOath
Mikey
Ġrejects
4046
ĠTax
ĠGetty
Ġplugged
Ġcalcul
1450
omed
2208
ĠĠĠĠĠĠĠĠĠĠĠĠĠĠĠĠĠĠĠĠĠĠĠ
660
Ġexperiencing
530
8337
9002
oire
7112
"âĢĶ
2169
Ġkidnap
Ġgaz
haki
Ġgent
wha
Ġaccepting
USES
ĠIndy
artments
Ġwickedness
ĠThai
8310
ĠNoll
Inf
horses
Ġentrepreneur
ĠCicchirini
ĠGee
Ġfavor
Ġbarracks
Ġcheated
ĠBeer
Ġsmelling
Ġcalves
ĠAlbion
Ġdop
Ġsubter
largest
Ġcrash
ĠTrains
ĠAngie
ĠOvules
ĠKarachi
icksburg
3714
uli
ĠHoly
ideal
Ġretro
ĠALL
5866
Ġbones
ĠHead
ĠCarlo
ĠTrain
Ġfairs
Îµ
usual
ĠCaroline
aph
Ġforci
ĠWillis
amn
Ġtoll
type
-[
3999
486
Ġtraded
5945
ĠBruins
ĠSR
Ġsymposium
Ġunrelated
ĠSid
1978
ĠOthers
Ġobject
ĠHajji
Ġcontinues
Ġcontracts
4397
Ġinfluenced
iffin
4229
Ġprogram
Ġcheckpoint
ĠAfrican
9070
Ġincapable
ĠCindy
amation
Fer
Ġoutcomes
rer
Ġenrich
5830
Ġpetroleum
Ġ1901
rave
1725
happ
ĠStiles
They
ĠParliamentary
Ġyork
ĠEIGHT
ĠCandy
Ġcrimes
ĠHungary
Ġthrush
Ġsmuggling
Ġdemands
8263
678
Ġthence
el
Ġher
6666
Ġmerc
ahual
South
rissy
Works
amic
Ġ233
ther
Ġunprotected
Ġspect
ĠCromwell
izations
ecutor
Ġdr
Ġobtaining
ĠChess
oum
Nit
5828
Ġnecess
according
7003
keep
Ġapex
idge
6148
ĠMotors
etho
520
Ġmarbles
9005
Ġwidened
Ł
9151
Ġ130
omb
visible
Ġ93
Ġtransmissions
ĠMedium
ĠOliphant
Ġleng
4894
Ġinheritance
Ã¨ne
ye
ĠKrist
6341
UR
Ġmist
Ġliving
ĠCup
Ġimprove
2724
Ġconcentrated
doo
Ġpackets
willing
6832
497
Ġresignation
illor
compl
Ġcivic
turned
Low
Ġchest
Ġwithdraw
Ġheight
ĠCavalry
nomi
umat
7133
Ġfairly
ĠPist
Ġhateful
ĠMerc
apparently
Jet
ĠFighting
Ġfungus
1368
merce
ĠMadam
Act
ĠMichael
2828
8241
Ġecstasy
ĠIvanovich
Shr
2250
Ġdeed
ĠChapman
Ġdeposed
Ġcelebr
Ġcommitment
2210
ĠErin
Ġpros
bub
Bud
Ġpromise
Yaman
ENG
5158
Ġinterfering
5393
Ġsperm
964
Ġcharm
8100
Lear
ikiped
ĠBelfast
Minus
Ġraided
.]]
Ġworrying
7536
Ġresentment
Ġdissolve
Ġcare
Ġsign
eapolis
Ġconversations
ati
1830
3469
6298
Ġaristocracy
ĠArchan
orama
ĠHec
ĠUP
Â²
ĠAugustus
terior
Ġstrangled
Ġabbreviated
Ġminer
Ġign
ĠAxis
Ġillust
pict
Ġdispatched
ooked
ĠCarmichael
Ġtiger
lain
745
ĠDun
ĠUEF
umbelina
ĠASUN
Ġlovingly
Ġcharming
ĠTelegraph
Ġnitrogen
Ġpalace
Ġunderworld
8094
FL
Ġoutset
ĠCave
Ġalche
ĠCasino
Ġheads
Ġmild
Ġ69
ĠWaterloo
odan
Ã±oz
rail
Ġjudging
Ġprimarily
Ġtense
4800
sun
3009
ĠAtlas
ts
Ġcalculator
Ġmemoir
8841
2432
ĠJurisdiction
Ġdisapp
od
Ġhag
ĠEvolution
ĠCoastal
Ġroars
TER
INGING
3936
Sav
g
ĠGuinea
Ġcontestant
Silence
atively
Nina
Kor
abba
ĠdÎ¿
ĠEmb
Ġkat
zar
ĠJae
Ġt
ĠSomme
Ġcelebration
874
Must
Ġtune
Ġchaper
ĠWoodrow
4535
Ġspilled
ĠSuddenly
5262
inus
ĠEisenhower
Ġwines
Ġtwisted
ankham
waves
ĠBecky
._,
acey
ĠMOTHER
Ġninety
tol
CLEARS
ĠEslam
8808
ĠEP
5076
2985
1968
ĠMedic
TY
Ġacquitted
Ġrefrigerator
8794
Ġmanagement
Ġrevis
Ġnom
Ġpretty
Ġweaken
ĠWIVT
ĠIndustries
ĠIslander
ĠCavendish
1266
Ġpersu
4645
ĠEMP
ĠCroydon
Sor
follow
Ġtech
Ġborough
Ġgrabs
dirty
Jenny
ĠHarrison
Ġbackwards
2343
DA
ĠPuss
Ġ1897
ĠMozilla
Ġdiameter
Ġencomp
8390
Ġtranslated
IS
Ġpeered
Ġraven
Ġhee
2850
Ġadaptation
586
7843
Pale
ĠEduardo
ĠBenham
Ġthingy
enn
5346
Ġdevastating
8959
ĠRevolution
ĠZambia
!...
Roman
Ġheart
wagen
381
heastern
5570
beam
2224
Ġinvite
Ġunjust
ĠTomb
Ġdigits
Ġpotential
4030
ĠLiberal
3480
anke
istered
Ġ253
Essentially
Ġstrand
Ġpubs
4246
Ġdisciples
ĠFind
ĠCarthage
ĠPen
From
Ġpresent
Ġemphas
Ġvoyage
ĠSEE
oard
2511
Ġexert
Ġintol
tone
Ġspike
Ġaboard
ĠConnery
Ġpeacock
Tim
2064
303
Tob
Warren
Ġbreeds
Ġsunshine
Ġthink
Ġpresses
Louis
Ġloon
want
Nic
ĠChick
ĠVive
Ġoverlaid
ĠPola
1053
5747
Ġcautious
tysh
iscilla
Ġbeat
Ġidentified
Ġsparkle
Ġphosphate
4897
ĠRailway
Ġboil
Ġmagnific
Ġnowadays
Ġratings
fleet
Dam
ĠClaus
izz
Pretty
ĠPas
Ġstare
Ġrepro
Ġ8
hero
Ġrepublican
fac
kids
sin
ĠZheng
9046
seat
stad
adam
7453
ifiers
isive
ĠMagdal
Ġmoist
Ġacclaim
taine
Ġscaffold
Ġtones
Ġlad
Ġfasc
Ġlat
Ġlandings
5736
Ġjun
Ġrecruitment
Ġfisher
Ġtrash
Ġgeographic
Ġaccordingly
2278
ĠCape
Ġlest
ĠVenezuela
Ġundertaking
ĠEly
4445
6736
unciation
Ġexempl
ĠMacau
Ġdeclared
WNEE
Ġtrainers
pedition
Ġhorrendous
ĠMilano
Ġdirective
Ġexplained
crew
Ġwart
ĠMora
iners
1540
ĠInst
Ġuncons
2311
nate
tenham
Ġuncertain
opsy
Ġovercoming
ĠĠĠ
expect
formal
Violence
ĠHiram
ĠGasps
980
ĠBattalion
heres
Ġsufficient
ĠConsider
moon
estown
Ġabandon
Ġ160
Ġpanic
5766
finger
ĠCubs
Ġbureau
ĠPauline
8344
olate
Ġbraid
ĠÅĮ
Ġaddresses
Ġsaint
Brothers
pressive
ĠDarrell
6742
Legal
Ġtouchy
Ġprofessors
6005
ĠLia
Ġdeliberate
8256
Ġtossed
Ġranked
mist
Ġnee
ĠTV
utherford
Ġpengu
571
isation
Ġsolo
ĠStinkmeaner
ĠReef
Ġspells
2788
Ġsubmitted
ĠMillion
Ġfriction
'-
off
Ġadditional
ĠViking
Ġmisses
Ġamendment
AN
ode
EP
care
ĠDaisy
ĠActor
ifying
ĠLate
Cape
Ġwashes
Ġscoot
Ġcongr
Ġpassages
1360
ĠHEAD
ĠRaz
Ġfurnish
ĠMarian
ĠDowlatabad
Ġsettlements
Ġeighteen
ĠCond
Ġsucceeded
1979
2789
Ġca
reux
7352
Ġ155
ansas
ĠLine
Lea
continental
5293
ĠMcGirr
ĠPERSON
Ġhysteria
Ġowns
Ġtownship
8735
Ġredundancy
8970
ĠElder
uled
701
612
rawberry
Ġdescent
Ġastron
Ġlethal
Motor
Ġstubborn
Ġslim
retched
Ġgutter
Ġeconom
arks
2517
Ġbalance
Ġciting
891
Ġneighboring
ĠBath
6609
4491
ĠInstead
7487
Ġkings
ĠRhod
Ġtrough
5152
ĠYours
2396
4442
Ġyo
Ġcampaigns
ĠSingaporean
Ġpredecessor
Ġtreatise
Ġcrocodiles
ĠMit
Holding
ĠNepal
ateful
Ġcalib
5287
Ġballerina
7858
Dutch
2320
8714
Ġcontrovers
Ku
ĠCosenza
Ġintu
ĠReuben
ĠGross
Ġamput
Ġaudience
gee
Ġsigning
Ġ83
Ġev
Ġidentify
Down
Ġblackmail
enic
KES
gold
emark
ĠChoi
neighb
8892
8840
3685
trans
ĠMike
1511
Ġchron
azine
ĠĠĠĠĠĠĠĠĠ
4362
Ġresol
Ġsuggested
tense
ĠYe
Ġfiend
Ġrig
Ġhandles
hanan
Ġanthropologist
inting
eff
erb
rude
Williams
ĠNissan
Ġbattered
Ġconjecture
Este
irs
Ġease
Mal
8986
Ġships
Ġinject
Ġprevented
Franz
Ġwhim
Ġsolic
ĠFl
Ġheavy
Ġgrandpa
opoly
Ġhesitate
Ġsweetest
oom
ĠDanish
Ġfem
ĠReyn
133
itty
ALISE
estoft
acted
Ġalternating
avin
Ġcollaborate
ĠOd
quist
Ġlime
verend
5118
6144
ped
Ġalready
Going
1335
WARD
3473
hoes
ĠHallmark
patrick
5862
Ġidols
Ġjob
Ġafterward
7271
ĠTHERE
8693
Ġsurname
Beauty
rows
ĠRory
it
ider
ris
ĠVolunte
4244
ĠCell
Ġdiagonal
Ġaccents
ĠÅ½
Ġalliances
ĠDoctrine
ĠBoulware
Ġinterface
Ġvirgin
ĠArea
ĠMadras
odox
2513
Jason
Ġ"...
Ġpensioner
ĠTiger
Carry
ĠTim
8600
Ġreconcile
Wheel
division
Ġalkyl
Ġreappeared
1634
ĠBrittas
Ġothers
Ġecosystem
ĠGramm
Ġtreats
6243
Ġscold
Ġafloat
8876
ancient
Ġaugment
inate
Ġsheriff
taining
Ġcentral
Fl
6141
Ġlists
Ġsheikh
Ġsa
Ġlet
6880
Normally
forces
Ġtwinkled
Ġpainfully
Ġfortress
ĠâĻ¬
1788
ucc
Ġspreading
Ġcharges
3699
Ġroses
iz
orry
Ġcrops
Ġdoth
Ġprovider
Ġmasc
ĠEther
Ġattributes
Ġshriek
Ġprosecut
ĠThirty
Ġunto
Ġinnings
Ġconcussion
Ġcontroller
2614
hend
Ġ1898
ĠHenson
cad
ĠMustang
woo
ĠInstitute
lend
ountain
Ġtreating
ferences
Halo
Ġfertility
1097
ĠKazakhstan
ĠElizabeth
ĠTheo
Ġ1770
etitions
4142
Ġconsciousness
Ġ1989
Ġdecides
Ġconclude
ĠCertain
tery
Ġstuff
206
Ste
Ġconductor
6701
Ġfinances
Ġtuberculosis
3418
ĠCustoms
Ġteapot
Ġchew
Ġinsomnia
ĠPerhaps
ĠContract
Ġnoisy
179
hia
nce
Ġgenetics
Ġduc
ĩ
ĠDur
2921
Ġflap
1007
Ġbetraying
Ġconservative
oute
1077
Ġbranched
6197
405
ĠÃŁ
Donnell
Ġprizes
ĠKhal
Ġsynagogue
9148
welcome
Ġfries
Ġnaming
Ġdine
9168
Ġthrice
ĠWO
Ġaquarium
Cru
8599
ĠRUS
5377
iques
Ġdigging
Ġyours
Ġones
ĠWin
Ġfiled
Ã©t
Ġgrandson
Ġchamp
1761
GER
vest
Ġ/&
Ġforeigner
Ġchooses
Ġcomprom
Ġservants
ĠClassics
7118
Arnold
7861
Ġslit
ĠCLANKING
ĠWha
âĻªâĻª
Ġfare
odic
Al
ĠReturning
ĠChinatown
ĠPoland
4313
ĠMiami
Ġpumped
Ġjoy
Ġsurprise
URE
5227
ERING
Ġplung
Ġeagerness
8297
Black
Ġhall
Ġ1983
Ġ40
igr
rust
Ġpatriotism
ĠRim
Disp
Ġcages
5883
2165
kaya
Ġgor
ĠEmmy
ĠTrin
Ġcontinuation
SS
2969
1032
ĠOVER
ĠNats
%,
ĠAnimal
AY
1294
3387
ĠKnob
ĠCrawford
ĠMirabel
ĠVasin
ĠBase
Ġfeud
4373
Ġflowing
Ġguests
Ġsubset
2071
ĠFinance
551
Ġvalidity
!".
VING
*...
Ġomin
Ġsatisfying
Ġecc
inkled
ard
ius
ĠLanguage
ĠLÃ³
Ġtwins
Ġagency
Bill
ĠReardon
ĠBoris
Ùħ
popular
ĠMalawi
2592
ĠConcert
Ġwinter
Ġbred
Richard
ecting
ĠBallantine
Ġroad
Ġchatter
ĠTrans
Ġsites
8141
Ġtent
often
ĠSongs
UH
Saf
Ġfractures
Ġfunctions
Ġgeographical
2754
club
338
ĠYang
ĠARABIC
nton
Ġchis
Justice
ĠInitially
2336
2624
Ġgreenbelt
Ġplayer
ĠChul
_)
-(
ĠXVI
7177
ercise
Ġhoc
enton
Ġblokes
Ġpra
Ġlane
Ġforge
Ġorth
Ġ237
1127
ĠAege
Ġreporters
GlC
Ġmuch
Ġenvy
1909
Ġ64
6955
8640
Ġwillingly
3235
inguished
Italian
ĠMalibu
ĠLincoln
Ġwandered
ĠTris
seus
464
Ġreaction
ĠTa
Ġgir
Cond
Ġkiss
ĠNASA
hoo
Panama
ĠGage
Ġastonishment
ĠTelevision
pless
ident
Had
Ġ$
2538
Ġstriker
Ġaspir
ĠMajority
Ġmeaningless
Ġscot
Ġentreat
irsten
oudhury
Ġenvelopes
elligence
ĠMage
Ġduckies
Ġtort
Ġv
7231
ĠBritney
Ġsimultaneous
Ġmistakes
ĠXindi
Ġ1860
4450
Ġpublisher
3703
Christmas
Doc
Mario
Ġinside
pirrnga
mand
Ġsabot
1644
Ġrug
Ġcasc
8609
Ġsubtitles
Ġimplicit
3820
Ġearly
1467
ĠLauderdale
Ġshades
ĠAm
ĠTour
422
x
2252
ore
Ġtrusting
ĠPag
TlL
ĠLOT
ĠIntern
ĠQuest
Ġblackness
ARM
Ġneedless
Ġconsecutive
Ġplaces
Ġdiscussing
Ġsurvivors
7807
ĠKum
Ġthee
799
1936
ĠMia
ysus
ĠTransylvania
uscan
ĠBridon
lets
1685
ĠProdu
Ġimmort
esh
Ġreliable
pos
ĠGreenland
Ġavoid
alan
Ġdelivered
forcing
Govinda
ĠF
ĠKhar
ĠCarn
Ġmasks
ĠLore
ĠMoy
Ġmyth
4715
6004
Ġcomplaint
onies
1282
Ġforms
Ġ1906
Ġdot
3401
Ġpaws
Ġawareness
1035
7996
ĠBasketball
/-
ĠAi
Ġtechnology
Ġequality
ï
part
onto
Emily
ucian
Ġwarrior
Ġschemes
ĠHeritage
Î¥Î¿u
ĠDix
Constant
Ġdiscont
Ġchanting
strom
ĠHaven
1813
Ġbatteries
ĠLorenzo
Ġcooperating
Ġincreases
Ġpsychoan
Ġpragmat
Whose
Ġexpects
Ġsmashed
Ġvac
ĠConway
Ġdiscusses
Ġrevealing
hya
ĠKula
7080
ĠChicago
Ġschizophren
ĠBrave
Ġliquor
al
937
thel
Ġgaps
Ġslogan
ĠTrelane
Ġcastle
Ġmerely
Ġdried
Ġ1825
Ġpom
osex
8799
igneous
ĠHamlet
Ġstately
MOST
craper
Ġspawned
ĠActress
Ġpunish
Whoo
bang
ĠANYTHING
Ġguise
5113
endra
Ġskeletons
ĠBeers
NY
2503
7248
Ġcol
amael
ĠThroughout
342
Ġ241
Ġfrustrated
Ġadvantage
Ġdidst
Ġdivine
ĠGoldsmith
Ġlogic
Ġidiots
Ġaccomplishment
Mus
Ġreinc
Ġflights
ĠComp
ĠDrink
Ġrates
eroy
Ġsym
Ġimproves
hra
1900
ĠItalians
Ġambush
Ġhipp
ĠSummit
ĠSchaefer
ah
Äĥ
ured
Ġsubmission
Immediately
Ġbait
7354
Ġroom
ilem
Ġfuckers
ĠBern
ĠMeitei
atherine
Ġtomb
Ġheated
5103
oltz
Ġschizophrenia
4559
ĠGen
ĠTAL
PEOPLE
ibus
Ġcompetitor
Ġstatues
Ġalthough
ĠInternet
immer
ĠBuild
4392
3314
Ġdick
Ġsake
ĠTran
6433
ĠWinston
Ġstructure
Ġunits
Ġhered
Ġeastern
Ġcharts
Ġoffice
Why
Stri
Ġforces
Ġagitated
ĠYard
ĠClan
Ġcigars
Â¾
Ġassemble
ie
Ġwin
channel
hoid
entle
Ġembarrassed
Ġparsing
even
127
Ġbuffalo
6272
6008
izophren
Ġbein
Ġmagically
ľ
Ġisn
hour
Ġfurry
overs
ĠAlps
Ġgoddesses
Ġsecuring
149
ĠRidge
2679
Ġdrowned
ises
ĠPorts
ĠPig
port
ĠWo
Ġcom
def
4268
Ġanat
4853
ĠPsych
Ġsnail
Ġ210
ĠMao
Ġlava
Ġbour
hur
icing
2308
Need
ĠVan
lyne
1487
Ġadam
4106
Ġmafia
ĠLit
Force
Claude
Ġnewcomer
ĠCage
Ġfatty
Francisco
Ġsorrow
Ġkillers
ractor
Ġbitcoins
ID
ĠN
Ġhasty
Ġyields
Ġchamber
Ġadmiration
Ġmainsheet
Ġdown
Ġcob
Ġconsiderations
ĠSchlÃ¤
Ġrefer
6402
Mountain
oop
hon
ĠCircuit
Ġ106
Ã³t
inski
Ġunderstanding
Wish
Ġmethod
Ġpit
osal
Join
Strange
Ġdates
idal
Ġconflicting
dead
Ġwander
2035
8800
Ġriders
Ġdefender
ĠEar
5678
Ġgoal
ĠParade
hm
2899
5829
ĠVIII
ĠUs
ĠFrang
ĠShock
Ġconcession
Ġtravell
Noah
155
ĠIdol
elen
ĠHook
ĠMontreal
Ġstirring
ĠHorse
Ġscrib
Ġcontexts
âĢĻ
7737
ĠBohem
8421
Ġbathed
.....
Ġyour
Ġscripted
Ġragged
ĠVoor
hundred
famous
ĠHam
Norway
Ġmock
ĠAmeric
Almost
Ġprox
Ġswan
2228
Ġoutburst
ĠReal
Mino
Ġdraught
3636
Ġrepublic
Ġburial
5732
ĠPlatform
9229
zon
8506
1694
Ġroast
unior
6378
Ġrebellious
7422
Ġjimmy
Ivan
Ã¢lons
injiang
ĠArv
9170
Ġmamm
G
uri
ĠHoo
5224
Ġdevotion
Ġbroth
Ġresigned
2980
Ġgeometry
ouse
Ġenc
Ġelected
Cat
wu
haha
143
2532
indi
Ġscrubbed
holder
figured
Ġtroubles
Ġidentity
ĠFreddie
ĠColeman
ĠBenjamin
Ġallowances
NE
3236
osa
Ġvess
ATION
Ġautobiography
ĠBetween
Ã²
Ġaloof
Ori
aling
1568
8388
ĠStowe
PH
5160
ĠLatif
ĠAve
Ġinteresting
Ġlit
ĠAdal
Ġmilitants
Ġtiles
8492
Ġrev
®
Ġvocabulary
Ġmono
6661
Æ
Ġbursting
3303
fled
Ġpedals
2644
Ġcoast
Ġabdu
Hence
ĠCSBG
Ġpie
oy
ĠTampha
Ġunmistak
1769
Ġhumiliated
Local
ĠB
ifiable
Ġheading
Ġreduces
Ġpharmac
ebast
3789
orneys
Ġ1805
8536
Ġdelusion
537
Ġalias
Ġbridle
Ġsparse
1781
Ġglare
759
ĠBaby
3585
ĠManufact
Ġenric
158
Ġdemanded
1872
Ġborne
Fortunately
ĠOdenton
see
Ġsolely
852
zhou
ĠHelene
ĠBrowne
ĠAnthony
Ġmaster
PR
found
fully
Ġmonitor
1371
ĠWilliam
8238
Ġsor
ĠThur
Ġcompaction
ĠShahrak
Alcohol
Ġlocally
Ġspun
ĠKurdistan
eon
ĠMajesty
8719
Ġorphanage
Ġprovision
ĠMet
Ġvigorously
587
Ġsurgery
66
cle
ĠCalm
Jerry
miss
Ġmidst
Ã¸r
ogn
Ġcollar
Ġrails
Ġconcern
cium
ĠRosa
ĠBEEN
fuel
ifle
ĠCaribbean
ĠRede
aurant
1504
Malplaquet
shr
Ġstretcher
Ġaltars
ensus
Ġan
ĠNaples
3762
otsky
Ġann
ĠLady
Ġinvolves
Ġchristmas
Ġhangs
Ġnewcom
apore
MON
lab
%.
Ġroadway
Ġdrowning
2963
ksha
Ġsqueaky
ĠMajnun
Ġstrange
ĠNOTHING
Ġtight
Ġcloths
PRO
Ġindoors
3810
MU
Ġcarnivorous
idden
Ġcost
2993
5994
ooray
hampion
424
8295
5773
ifier
641
Ġocc
2494
Ġhorrified
Ġgrieve
asants
Ġexits
umi
Ġcon
Ġprest
Years
Electric
ĠLuigi
ĠKenton
Alarm
7806
year
ĠAdventure
Ġrituals
ĠSnyder
Ġmalice
shad
Ġcrave
ĠMicha
ing
ĠPahlavi
825
Ġexamination
Ġpeaceful
ĠNether
Ġnobody
1324
ĠOften
Ġ242
Ġwoodland
Ġgoofy
Ġaggression
713
Ġoblong
omp
Ġconcent
4497
Ġrejoiced
Ġcontacted
Ġbirthmark
sl
Ġspawn
mountain
Hem
1849
ovinda
Ġvocalist
Ġrevealed
5462
cise
Ġprotein
Mum
Ġpostp
Ġclassics
4832
Play
Lisbon
Ġthreads
ĠRonnie
Ġcorpor
4423
Ġfleet
ĠMAN
safe
Ġspheres
Ġeconomics
Ġser
Ġspark
move
Ġgrudge
ici
Ġprofessor
Sw
ĠWr
Hom
GIN
ĠAramean
Cuz
7476
ĠSpect
Ġreplen
idi
ĠTiffany
941
ĠBenson
Ġlandscape
ĠGri
Ġfowls
Ġpenal
Ġwill
Ġrudely
ubishi
]
ĠDary
ĠSWT
6903
Ġ22
1255
Ġrubber
Ġcandy
ĠLois
Ġpost
Ġaiming
ĠBlues
Ġ327
ĠEEP
Ġshade
Ġhers
Ġchoked
Ġmetap
ĠPatrol
1794
Ġisolation
233
7834
Ġcleverly
ipe
itic
Ġhobby
ĠIndia
ĠII
5702
Ġruddy
police
Ġfeeb
phant
Ġcollision
Ġ--&
irit
Ġnar
Ġsilent
Ġprice
Ġsympt
5502
ĠHarry
atoes
Ġformed
Dawson
Ġsorrowful
Ġsmiling
2718
important
GLASS
ĠWAR
Ġmorbid
ĠUl
ĠPowell
2466
Ġfeasible
Ġmasters
ĠShaun
7887
6670
Ġbuck
ĠRaj
Ġsovereign
Court
Ġus
berger
3253
Ġinstances
Ġspur
4742
4831
Ġdamsel
110
Ġnewest
Ġjenny
ĠPresidential
8235
ĠHour
Ġcollective
Ġpromised
8258
Ġheadache
1384
Ġtatto
ĠVul
ĠTotal
udden
catraz
ĠVeloso
ĠOWS
ĠVa
Ġavailable
uffy
7413
È
Ġgreater
ĠKanima
7249
ĠMartine
Ġmarine
1307
ogen
ĠDIDN
sitting
IFA
Ġtuck
guez
Pacific
ĠKyoto
5137
Cook
Ġoccupying
----"
Ú
Ġreceived
7086
Wrong
ĠGrammont
PD
Baron
Ġnearer
ivel
Ġsense
Co
untary
1283
etan
Ġdesigners
Ġcontrols
ĠUt
abel
Ġprote
Ġhires
Ġfeas
ota
2558
ouble
ocks
8003
6285
Ġanalyzed
eating
ĠECHL
Ġmoods
9158
Ġupdates
mult
Ġpredator
439
ĠComputer
moral
Ġsailed
Ġag
7549
Typ
PAYNTER
Ġaims
Ġmetallic
8220
ĠAlexander
1616
ĠSo
Ġdah
ĠAmateur
201
Ġtyping
âĢĺ
Ġimpatient
Ġurinary
Ġrupees
bby
ddy
penny
ĠTrack
burn
EK
Ġmourn
Ġcavern
ĠLa
Ġprotects
8133
ĠMahmud
Ġpornography
7243
Ġloops
1732
GBT
UI
ĠKaur
ser
mel
Ġforcibly
olly
Ġcollector
ĠHokkaido
4762
Ġmurmur
rek
ĠDash
Ġdoo
Pri
Ġperv
Ġmedley
Ġlinearly
ebi
1194
ite
Ġscratching
itimate
Ġinterrog
ALLY
Ġneigh
Ġlarger
Ġ23
Ġindic
2162
8749
1673
6741
Treat
ĠOri
li
Thus
ĠCuban
ĠKenobi
ĠIts
Ġfins
Ġkids
1052
ĠAronson
ruption
âĢĿ.
Ġderives
ĠFlyers
8835
Ġrook
ĠHy
Ġ1806
iggs
ĠMagician
ĠSighs
Ġreviewed
ĠSecurity
opath
5396
ĠWatergate
Ill
ubic
6409
Ooh
Pack
6731
ĠAnt
uties
hika
Ġreven
Ġmilitary
Ġlots
Ġformat
Ġgrocery
ĠARAB
2607
Ġ1803
Ġmerchant
ĠMohammad
Ġpacking
ĠAmb
1214
Ġ1819
ĠPel
olian
Ġcoalitions
Ġrapping
ĠHenn
Ġobligations
7194
Ġenrolled
Ġproject
Ġscreenwriter
ĠFres
6237
Ġhorrific
Ġexcav
Ġtongue
formance
released
Cheers
Ġgeology
raine
Ġchill
ancouver
Ġcure
thomas
Ġapes
ĠRahman
UB
quisition
orpor
Ġretention
ĠSchu
Ġtangible
ĠBamb
Echizen
ccane
4788
io
Ġdu
ĠGerard
kscrew
Ġs
Ġcongratulations
4199
Ġdismay
Ġsermons
5309
were
Ġgorillas
ĠFanny
ungo
meas
Ġdevastated
Ġ1200
Ġmillennium
8740
ÄģnÄ«
2877
Ar
Ġrequests
3174
ĠCO
Ġprince
6639
Ġpiracy
thon
vant
1726
4258
Ġinfection
541
1635
Ġcomr
Ġspanish
Ġcourtroom
7193
elfare
arry
Ġunrest
2823
ĠKeep
ĠCha
4007
Ġstarted
Ġworkers
Ġrhy
8580
3304
Ġsalon
prus
ĠClayton
ĠOlymp
ĠKor
ĠTae
Ġdancing
thou
icals
The
Ġ500
Ġmartyr
9137
Ġhonour
ĠSupport
ĠSIDE
Ġignoring
iest
onn
Ġpropagation
286
Ġallow
",
Ġbulk
Ġtits
6745
5858
ovar
ĠBroken
2442
ĠArist
Ġcounty
anges
rants
!&
Ġinstinctively
ĠCab
6183
Ġsalam
morr
hesia
ĠAryan
Bul
Ġsorry
Ġattic
teryx
Ġalloys
Ġunnoticed
Ġadjacent
von
4309
Ġorthonormal
bler
3431
word
1937
Ġmurdered
Ġbeforehand
Ġjobs
ĠSchlÃ¤fli
2135
ĠPush
Ġeasiest
Ġlocomotive
ĠdÃ©
4055
Ġmajesty
Jin
Ġpetrol
Ġconfused
key
Christianity
Ġconside
Ġforgotten
1088
ĠYugoslavia
2363
ĠFilipino
ests
6356
5006
pire
ĠToni
Tel
ĠCologne
Ord
Ġapproach
Ġunacceptable
ĠBest
cat
Ġholders
Ġclicking
Ġdecades
Ġpad
isers
rian
Nadim
ĠAdama
ece
cum
8432
Ġalmost
ĠLomb
ĠIDs
Ġrevoked
ĠArmen
4287
Ġantenna
3950
beams
bees
ĠLaire
6594
Ġbedroom
Ġfluct
8850
Ġwah
Clinton
ĠYoon
Ġgreeted
2742
rious
Ġtypew
4280
Ġincessant
!!
ĠStyle
ĠJane
branded
Ġdrumming
Ġrelativity
dict
odynam
heim
acc
ud
adelphia
ĠSeine
Ġtended
Elizabeth
Ġrend
ĠACL
Ġinstrumental
Ġreed
ĠLOVE
6791
ESCO
Crystal
Ġpossibly
Ġcoined
rane
Ġregulation
Ġerr
ĠKentchurch
ĠHog
Ġstay
Ġbutcher
ĠSeveral
3306
Ġinnocence
Ġdrilling
grave
Ġbriefcase
Ġprofess
Ġsounded
cont
Ġfatigue
5105
ĠLeongatha
Ġh
ĠTA
ke
ĠMÄģ
ologist
ĠHauts
Ġincarnation
292
ĠÅŀ
Ġ2013
cam
Ġtextile
pools
6630
5454
Ġ01
Ġvalue
Ġpromotion
Ġcoverage
Ġhawk
Blo
ĠfÎ¿r
Ġ156
pington
Ġgarbage
ĠWaiting
ĠPerfect
erne
1786
Ġammon
ress
Ġcaravans
Merry
2598
Ġbus
Ġloving
805
ĠLevi
Ġunfold
Ġcrochet
Ġvice
haran
Ġcerebral
Ġinherit
Match
Ġfiles
ĠBr
Ġadaptations
ĠLt
8690
Ġwipe
Ġst
7870
ĠDance
3424
Ġcouch
ĠProfess
7775
ĠMasters
Ġattack
Ġarchaeology
needed
Ġfury
Ġdiarr
ĠFlowers
Ġbewildered
Ġmust
Ġdisaster
ĠCopenhagen
arios
GP
ĠSurv
6422
7969
Ġsubdivisions
":
Ġpatient
4250
Ġkettle
ĠLA
Slow
Glory
ochondrial
Ġinterior
ĠGugg
ĠDegree
Ġmarqu
Ġnicely
Pun
8359
Ġcrutch
Rock
Ġtraditionally
ders
IT
Ġactual
Ġshaken
ĠKiev
4059
cipl
Ġhum
Ġlegs
Ġlur
Ġclumsy
Ġswall
orno
sa
Ġimprisoned
1471
uku
Ġcanopy
Ġintuition
Ġterr
ĠNORVl
abelle
phur
pound
IMES
Ġhonors
there
765
Ġserm
Ġbruise
ĠSpace
Ġrelations
Ġfilthy
Ġfrank
iter
Ġfr
ĠAdminist
Ġlongitud
ĠYul
236
Ġinspect
ĠMY
5833
Ã±a
ĠKob
Ġhier
ĠOpposition
ĠMeetei
Ġhymn
Ġclattering
ĠNazis
ĠThough
3484
ugust
Ġsacks
Ġ1912
ĠLab
Ġ76
9036
ellar
2092
Anybody
ĠCalcutta
ĠOlivia
Ġceremony
Ġfair
ĠMayhew
Ġargon
Ġcongregation
lty
Ġhappen
ĠEdmund
Ġcomprehension
Ġconditional
ĠDoming
ĠTrade
ulu
Ġchugga
Ġgirls
onymous
Ġminerals
ashire
change
722
itage
1238
Ġdodec
Ġwrinkled
Ġcats
ĠOrioles
Ġfil
Move
rainian
ĠGB
Sorry
í
Ġphysiology
2968
Lew
Ġhorn
uerto
aunch
ĠYanke
3287
8720
Did
Ġtv
Domin
ĠWill
ĠCost
arnation
emer
writers
usic
Ġash
wixt
hoon
ĠTory
ĠEg
Ġharassed
ĠYear
6784
ĠBrahman
8191
Ġflashes
Ġoccur
ĠTamp
Ġchore
itially
ĠZelalem
easy
Ġpebble
5300
hydrate
ĠSS
Ġintensive
Ġbizarre
Ġlament
ĠHeavyweight
Rel
5608
ĠHood
Ġplentiful
Ġbike
ĠMonday
inery
Ġmeasurement
thest
7414
Ġrod
ĠTrude
ĠSabourin
ĠJail
odka
9216
ĠTitans
GERS
Ġproximity
ĠX
Ġput
513
3655
9097
ĠDemocr
ĠTalk
ernon
Ġherald
ĠThroat
ĠRecording
3288
Ġirons
Ġunc
Sign
odia
ĠEVER
ube
ombat
machine
ĠHiggs
Â°
odian
ijing
458
Ġchol
Ġoverseas
paid
ficial
à¤
enbaum
ĠTank
Ġliteral
Ġgrimly
332
QU
Ġbread
ETNAMES
Ġrations
Ġquack
ĠVOICE
855
brahim
7164
bus
these
iciary
omin
Ġwhenever
Ġrealize
Ġhurt
Ġcloses
Ġsucking
ĠMarathi
osenza
spec
little
Ġtapes
section
ĠTR
ĠPM
ĠAfghanistan
ĠGle
8550
Ġsuspected
Ġ1517
Ġorganized
Ġowl
4697
8225
Ġadmin
gar
ĠEsh
ĠPapers
ki
ynn
Ġscale
ingling
rounded
ĠCoca
Ã¡s
1922
857
geous
1683
suits
5692
ĠOriental
ĠColony
Ġlass
Ġjoys
ĠDutchman
ĠRound
Ġawake
Ġreasonably
eni
Ġcensus
Sooner
Ġproxy
Ġinnoc
protected
ryan
Ġelf
ĠCommunic
Ġinserting
ple
orated
Ġentreprene
Bir
ĠShutterstock
Warm
Ġmorrow
Ġpulp
Ġhij
Ġgifts
Ġlocks
reason
Allen
Ġovertake
Ġanyone
ased
3099
Ġwow
umping
BC
Ġcommonplace
Ġmanaged
Ġsuspend
ĠEasy
Ġwitty
Ġuproar
rival
Ġdecoration
inai
ĠFIN
EPP
Ġdelightful
ignty
hap
ĠHobbesian
Ġangles
indy
Ġarrangements
produced
families
pox
ional
bert
ĠMabel
Ġobeyed
Ġmoder
3286
Ġ''
7484
rah
undi
Ġdinners
rams
sted
ĠRamsay
4189
7698
Ġmyriad
Ġall
Ġ2008
ashington
Ġmorn
6332
Ã©e
ĠRl
occupation
ĠGren
ĠYakov
Many
Ġfeet
ĠCentre
1949
Ġ1907
incre
ycl
Ġoverwhelmed
ĠBlackpool
Ġingen
ĠMas
Ġaffirmative
ĠLotus
Ġic
only
really
Ġaliens
Ġinflu
ousal
-
ue
ggest
ĠTar
ĠWas
8148
rape
Ġbelts
5167
hang
7493
pto
iary
Ġtreacherous
ĠHalf
Chris
Ġâ
51
ĠManit
Ġfors
Ġprecise
Ġsuperb
defghijklmnop
UNK
Ġrin
Ġfamously
Ġsurprising
sar
leigh
ĠDawn
ceed
Ġcritically
Ġsympathi
ĠWes
sleeve
Ġanother
8109
ĠBronx
leaves
Ġdecreased
ream
Saul
ĠConference
ĠSahib
Ġzen
ĠTanzania
Harr
hanba
sons
ĠSharpe
ĠStep
Ġfeast
Ġprojection
Ġshocking
Ġaccum
Ġmen
ĠBat
1002
Ġwheels
ĠSean
ĠKash
Ġintrodu
ÃŃn
aze
zung
550
416
estone
1501
grav
romeda
Ky
Ġnurs
Ġ139
Ġeach
ĠEilert
Ġeyel
6549
Ġlia
4234
Ess
Jan
1241
ĠChip
Ġhurriedly
Ġdest
Ġscreenplay
ĠPrin
Ġmedicines
ĠYasuda
ĠRetrieved
ocaust
.[
Ġneighbors
1887
7884
finally
Charl
Ġhan
5368
Basically
icz
andum
Sold
CS
8485
ĠKILL
Ġbandits
rift
Vol
Ġgunfire
Ġauthorize
Ġmore
azaar
Ġcocktails
iddy
ĠWhig
Ġsearched
Ġgrowth
Ġcompan
ĠOctober
Ġbarg
llen
5388
engine
ĠTerm
itative
MB
Bed
7811
ĠSky
Ġobliter
2081
ĠDIS
noxious
practice
RNA
Ġmortgage
ĠLiza
Ġdivinities
3605
Ġcolleague
xide
Ġgeological
4166
Ġsitcoms
4335
GI
Ġcamera
ATHER
Ġdisappeared
abad
Ġvowel
Ġwillows
5752
ĠPal
Ġdogs
Carter
Ġmur
azines
Ġsurveillance
ENT
Ġprin
Six
ĠTOO
Fruit
ĠNatasha
ĠHerold
Ġparamedics
put
ĠBridge
ĠHudson
7109
Ġ44
ologically
ĠWal
Ġkilled
5812
Ġspiral
Ġapology
ĠLordship
Ġvision
Ġtoilets
ĠMalaysia
Ġtoleration
uelan
Rebecca
JP
tub
Ġdisrespect
ices
4441
Ġmingled
Ġbeeping
4386
Currently
Ġmedi
Balt
Ġsol
Ãº
Ġdiplomacy
negie
Ġwhisp
kick
across
Ġbrendon
olute
2256
Ġregiment
ears
ĠFoxham
burg
dramatic
ĠChocolate
Ġ"'
uality
1325
4635
Ġsweeter
ĠQuentin
uter
atives
ĠHannah
Vl
VD
Ġfactories
6893
angry
Ġcomic
Ġfantastic
4296
Ġlookin
¨
ower
Ġexplo
Ġrhymes
7560
Ġcorros
phin
ĠMitsubishi
riggs
Teddy
Ġcountermeasure
Ġdescribe
5135
suing
ĠyÎ¿ur
Ġnapp
ĠNathaniel
ĠNewsom
Ġdetails
athan
avans
ishan
Ġsnails
2124
3343
Ġapplication
rupted
zer
Ġwhatsoever
rilla
Ġwrapper
Ġpreferred
Ġfats
Ġment
Ġdime
Ġobserv
knew
ĠDAR
Ġdreary
ĠSeigaku
Ġclich
iven
Ġcushion
iphant
Ġdemonic
ĠMessenger
Ġhomosex
rational
8555
ĠRoger
Ġorganic
7346
Ġripp
Ġyard
iece
sea
3444
Ġfacial
5707
2869
8425
2945
Ġsanction
ĠHassan
Ġawful
2900
ĠBunker
Ġcannabis
Ġquoted
Ġniece
Ġbival
Ġcommittee
847
2775
ee
Ġrhyme
ĠMac
Ġpuffed
8996
Ġth
Ġpot
ulars
Catholic
Ġfarce
Ġbl
ĠIndones
320
Ġunre
Ġstructured
ĠYankees
ĠĠĠĠĠĠĠĠĠĠĠĠĠ
Ġcontribute
Ġbases
Ġreson
ĠKerim
ĠMarcel
1276
Ġregime
Ġgoverning
Ġphrases
Ġdesert
Ġlawyers
Ġmythical
280
ĠWendy
ĠHAND
ĠAshi
5400
Ġcounterfeit
ĠFOR
1004
Ġaphas
leg
izzard
8409
ĠGoods
ĠWallace
Ġloos
cried
Ġmathematics
Ġcrab
HO
Ġhi
ĠNBA
Ġsentenced
Ġvault
Ġinfirm
akan
INDISTINCT
broke
4223
Ġfootprints
Ġwish
ĠBio
yond
Ġcoy
946
ĠBombay
Ġtendency
1954
Ġwanting
acy
MY
Ġlegitimate
discipl
dain
Ġthrushes
Ġattentive
Ġunus
Twilight
urring
ĠCall
Ġsealed
Ġpens
notes
329
1913
Tw
ĠOriginal
Ġroads
Xindian
piano
ĠMollie
Ġrav
Ġlea
8509
Ġsofter
Ġlargest
à¤¤
ĠBrownie
ivam
Inv
ived
ĠIris
Ġinquired
ĠHatch
ĠMary
2554
2316
Ġincision
ypso
come
IEVE
Ã¼tt
Ġdri
Laughter
Joel
2329
1542
Ġsituations
opp
Ġheed
worth
Ġinfluence
vey
net
Nobody
Ġcrayons
1418
Ġvariations
Ġjustify
Ġreserve
Ġtremendously
house
Ġgenerate
ĠSQU
doggie
ĠKatie
Ġtelling
Ġluggage
1724
Ġambit
hetti
5304
7226
4449
ĠNog
5353
9141
entes
donald
1330
ĠDeclaration
Magn
ocalypse
ĠAnge
Ġprogrammes
Ġamends
Ġweep
Ġundermine
groups
3570
Ġnor
Ġdistingu
650
Ġhelpful
1461
Ġgeography
Ġirrig
Ġtrillion
Ġsurm
tsu
Ġyen
ĠAust
nÃ©e
Ġequivalence
CY
LAUSE
Ġsurfaced
Ġdrawer
ĠLaine
ĠNam
ĠNATIVE
Ġbrow
4994
ĠRights
5171
Ġsophom
ĠSardar
ĠOdys
2274
atched
Set
Ġlives
Lot
4740
bly
2414
Ġhatred
Ġobtained
ĠCF
agan
5378
Ġencoun
ĠHallie
test
8775
Ġafterwards
Ġhypocr
ĠCecilia
orthy
qa
Ġearthen
Ġrailroad
Ġseriously
ayuki
Ġsup
Ġgren
odes
Ġraffle
ĠHub
ĠStuttgart
Ġlorries
Ġtemporal
ĠEvangelical
Ġfrogs
ĠBody
Ġgit
ĠCummings
imo
2214
Ġannex
Course
REAM
2263
aguar
ufact
6705
Ġtant
H
4485
3509
Ġprecaution
Äĳ
Doctors
ĠKoj
764
ats
beha
ĠRocco
Ġbees
top
ired
Ġelector
Ġutility
685
Ġportions
Å¡imir
Ġinstincts
4786
ĠYuen
Miller
Westphalia
ĠCinem
Ġvandal
Olivia
Ġaut
ĠELSE
ĠTreasure
5655
yp
Ġ219
ĠLur
Ġintentional
ĠPremium
Ġhouse
Ġsuspic
ĠMs
Ġwailing
7801
Ġequ
Ġexisted
ĠSami
calm
ĠDunkirk
uish
ĠZion
Ġdanc
self
Th
Ġaston
ĠNFL
Ġpus
Ġread
Ġask
ĠMalhotra
ĠLime
Ġalliance
6628
Ġearnest
3213
Ġcamoufl
130
aim
ĠDashwood
Ġcompilation
Ġank
âģ
Oak
Ġwiring
rub
ĠBavaria
ĠLaxmi
Ġmarshes
6420
Ġboots
gal
Ġcommander
Ġcounting
ick
4845
igi
1484
3465
ĠBrooks
orman
ought
Ġembrace
Ġunsuccessfully
enstein
Ġfinalist
Ġruth
Ġbreaking
yr
Ġinvited
ĠSusan
4399
Ġkilog
Ġargued
ĠNon
Order
Ġbeats
Ġkingdoms
ĠNea
Loose
Ġswitching
Ġbee
Ġer
Save
ĠFall
jee
pen
8751
Ġpulls
Ġcomputing
Ġgran
Ġtri
Ġlicensed
3816
Ġbeams
Ġsinger
Ġvex
glades
ĠYeol
Leima
4679
Ġdistribute
Ġyourselves
ogether
ĠHISPAN
6271
Ġsurely
once
otes
ĠVirgin
Ġsparkled
Ã¼n
Ġcatfish
ictory
ĠGrac
Ġactor
erer
ĠUsambara
Ġfatter
ĠAlexis
Ġpopular
Ġsharpened
Final
DER
grims
sharp
Hip
Ġrectangular
Ġconscience
ral
ĠWong
2013
Ġaccessory
4231
Ġdeep
ĠLum
Ġnine
ĠPione
Hans
ĠApril
ĠSag
fang
Ġbisc
Working
Ġrepeal
Ġmarvell
Ġsmart
illary
TAIN
Ġfund
Ġruined
ĠMun
ĠEnvelope
ĠAlicia
ĠGur
ĠLONG
Ġdisagreeable
ascular
ĠEyre
ils
Ġincons
1681
Ġfainting
Ġshudd
Ġboxes
4995
ĠYes
Ġgam
Chin
ĠStella
elli
Ġhistorians
WO
Î¿r
ĠYum
Ġdancers
Ġnonconvex
usions
Ġagrees
venty
Ġpercept
ĠGond
Ġhygiene
Ġmocked
Ġwithheld
app
Ġspecifications
Ġblocked
meet
ĠParent
Ġhurry
Ġbother
ĠONE
ĠUr
ĠMuni
3361
Ġconvention
ĠTottenham
Ġanswers
Ġproves
Ġgoldsmith
5447
Ġimpulses
8486
Ġenzymes
Hope
kes
coh
aughs
ace
estyle
Ġfax
ebb
Ã±o
Lat
bris
Ġfranc
Ġparishes
Ġjingle
Done
ĠChell
2213
ĠSisters
Ġcanned
Ġlaps
Ġdominated
Ġrowing
ride
OD
lung
ĠJones
Fox
Ġplaques
between
2612
6444
Britain
skins
play
5650
ĠAramaic
Ġgeneral
Ġflo
Ġmemories
Ġcast
2079
1400
ĠVers
Ġmomentum
sthetic
7132
ĠAnother
Ġignored
VES
ĠIce
fer
Ġexpresses
ĠHastings
ĠVog
ĠNicolas
Ġerased
Saying
emp
6535
Ġadvancement
ĠBELIEVE
essive
ogo
9129
ĠBowman
Ġrally
Ġprotons
ara
ĠCountries
rehend
¸
Ġbattalion
zeh
ADA
iverpool
Ġyummy
scar
1753
Ġattribut
Ġviol
ĠWho
SON
talk
3873
1858
2767
4597
Ġdecisive
Ġslid
Ġseamen
4203
Ġfir
ĠRomanian
6177
idering
81
1071
ĠRussians
ĠMother
nosed
Ġtheological
6863
Standing
8193
ĠSino
Ġshoulders
resses
Ġjerks
regarded
otus
Ġ1883
3315
ket
Ġnemo
ĠRainbow
ĠNordic
olic
ĠSET
Ġborrowed
ĠKarras
animals
Ġworkin
idated
Ġgoggles
conies
PT
Ġhalves
Jur
Ġstrew
2576
314
Europe
6216
Ġdign
Ġtheaters
Ġfallen
Ġpiggy
5696
Ġcornered
Ġessential
Ġareas
Ġpseud
ĠMail
bos
Specific
ĠLC
Ġseam
ĠYale
geois
iterate
¥
Ġchild
Ġintellig
Ġplundered
Ġsauce
Ġwiped
Ġtravers
ĠKhoriphaba
ĠWiltshire
Ġmaidens
Sex
angs
ABC
Ġpuppet
ounced
ĠHl
Ġbop
Ġcows
Ġstables
ĠSTREET
ĠEgyptian
Ġrhe
Ġexcuses
ĠMala
6662
Ġradar
Ġjumping
ĠWH
apper
tomorrow
ambled
lons
ĠCivil
Ġmilit
4247
lication
rades
Ġgraphics
Ġtropical
Ted
ĠNHL
Ġfriends
Ġeffectively
ishna
ĠRef
Ġcontest
tang
Ġjan
wax
Ġapplause
Ġforemost
mommy
urry
Ġstrips
Ġwithdrawn
reg
Ġprovince
2157
Ġrevolving
8570
6892
Ġadvant
Ġmor
Ġdepending
ties
eneral
ĠNorwegian
Ġmhm
ĠLiter
Ġreflective
Ġmills
4124
ĠSearch
ered
Ġjellyfish
7362
rendous
ĠSummers
ĠDam
Ġmysterious
journey
3380
ĠEver
aka
1747
shin
manner
Ġspreads
2566
Ġmort
Ġsurrendered
ĠFeder
agli
osher
Ġexamine
ĠIsn
ian
Ġcr
lN
Ġtheatres
Ġavenge
aughan
Ġdroll
Hmm
4865
Ġconnect
Ġbuggy
Crowd
ugged
ĠOs
ĠTVs
ĠAtlantic
Ġsoldering
Ġstretch
Ġconfess
7488
2184
Ġcondol
ND
Ġtailor
Ġsqu
Ġangrily
plain
ĠEurasia
ethylene
originally
7797
ĠConservation
ĠEllia
2206
Ġbounced
Gene
Ġnegative
3857
waukee
6396
Fil
ĠSlave
seem
riston
455
6397
uko
ĠMerchant
monary
Ġscolding
Hob
Before
ĠUm
4276
Ġknelt
Ġoutfits
itar
balance
Ġdeciduous
Ġrascal
4249
ĠLindworm
ĠIF
8319
Ġ[...]
4218
ĠBo
1878
Ġtroupe
Ġprime
Ġnetwork
ĠCock
shirt
Ġunbel
Ġparaly
2397
Anthony
6142
ĠLevel
Ġdivide
ĠOrleans
Ġspans
ĠSiegel
Ġgild
ifling
bridges
2434
ĠMarks
Ġdoubling
jao
ĠRam
ologna
ĠOS
beginning
ĠPakhtunkhwa
ĠLob
Ġpersons
oeira
2674
Ġnations
dy
wanna
ĠNin
Start
Ġpatent
Radio
Hand
6452
ĠSierra
ĠBangkok
Ġcreativity
Wick
Ġausp
Ġculinary
Ġpiec
1965
1625
bro
ĠCAP
ellow
ometers
ĠEmer
324
4530
6390
Ġchemical
Ġtill
Ġdrum
Ġdagger
Fuck
ĠEconomic
Ġsediments
ĠBA
eran
Ġell
ĠGilles
Ġunpl
istry
Ġtraumatic
Ġfurnishing
Ġswell
Ġnotebook
unted
4438
Ġtemper
121
ĠMith
ĠKona
107
Ġcrawl
ĠCad
Pierre
ĠEditor
ĠYuji
ieder
?âĢĿ
Ġrang
yah
Storm
ĠWet
ĠMercy
Ġ1857
atical
Ġinvoked
LLOYD
ĠWink
Ġfit
Ġdespised
734
ĠBangalore
7075
ennial
Ġreactors
Ġprosecute
Ġsplitting
ĠCBE
Ġmansion
Ġfathers
ĠNATO
Ġfulf
qs
Ġcrowding
Croat
Ġfur
Children
Sc
ĠGarcia
st
2237
Ġbullied
Ġpreach
Ġpositioned
Ġinternship
ĠAntarctica
onshire
ĠDamage
Ġdirector
ifice
6138
ĠMexic
Ġanx
Ġgiddy
oufl
Ġtrumpet
4787
Ġswayed
Rain
ĠMatch
Ġmerger
Ġcere
Ġrefined
Ġwardrobe
rophic
lean
Ġconvent
Ġcla
ĠHowever
orage
1723
Ġcontent
ooth
8376
Ġfirest
Ġbarred
JI
ĠPLA
stars
ĠInitiative
priests
itudes
Ġarchives
5065
Ġmeas
8630
Ġclocks
884
WHERE
3381
Ġobedience
answer
ARCH
Ġ04
hank
Tot
Nin
Ġdistinguished
Ġmorgue
Ġmaturity
Ġbum
Ġlam
Ġtru
Ġadopting
Ġrightful
R
Ġleapt
ĠBly
ĠCulture
Ant
ĠPry
ĠSah
Ġlabel
793
umb
aster
Ġclasped
Ġ1885
ĠParisian
Ġgenuine
Ġmarry
ĠColombia
ulse
Ġinquiry
That
Lord
Brown
790
5653
Dan
Ġsubdivided
Ġwither
ĠLect
aria
ĠCode
Step
uvw
ĠCorleone
Ġsingh
3201
ĠJanuary
oodle
Former
8287
Ġgleamed
Ġliked
Ġdresses
ĠFerr
Ġacyclic
local
Ġdecent
ĠShang
ician
Ġpictures
.-
ĠFoon
Ġflirting
6603
Ġless
8545
secret
Ġger
Ġseparating
Ġneighbor
jection
ANING
Ġcrisis
Ġantip
Ġdarkest
ĠFerguson
3467
ĠAppeals
ĠMÃ¡
Ġexpressed
Ġaction
Ġshared
Ġconstitution
Ġcortisol
Ġunusual
se
Ġgosh
oode
bearing
ĠKarim
6273
arty
,
Ġentirely
Ġstint
bitter
7442
Ġrumbling
Ġchur
ĠHab
alda
ĠTesla
Ġmel
Ġscriptures
Ġpurpose
8846
Ġoffspring
Ĵ
ĠiPad
ĠLaura
4884
5421
ĠTorre
ribute
span
Ġshell
Ġsafeguard
utland
Ġscaled
Ġcoward
hounds
ĠGIRL
Ġ;
cur
Ġregulating
Ġintriguing
Ġhallucinations
ĠPeterson
Matt
Ġacknowledge
ĠLutrophiles
ivist
Ġadditions
ĠCzech
Ġnth
ĠCarlos
ĠTravel
Ġcarrot
1573
Ġtissues
Ġmis
Ġhurting
ĠDresden
PETER
ĠNavar
Ġmankind
3488
Ġcooler
ĠLuck
silver
ars
6387
7227
Ê¿
Ġtablet
3272
indrical
bark
Ġjar
faced
7382
742
Ã¡ndez
6371
Ġnotice
Ġwinner
3745
744
ille
rophe
Ġreunited
Ġrebels
Ġvillagers
Ġmiracles
Ġcrafts
verbal
mania
ĠEung
acter
6213
Ġforward
odded
Govern
Ġformally
9040
2168
Ġconquer
6473
uchy
Ġsloop
ĠLes
levard
7784
5266
ĠWild
ĠDevi
estrian
Ġstool
ĠZhong
5727
etition
oral
4890
Ġdistinctly
Ġmessy
ĠSz
2197
647
1680
alal
Ġuniform
Get
Ġtheoret
8844
1134
Salem
emis
Ġtales
Ġdolphins
anski
aki
Ġblocks
6249
asaki
ĠPirates
Ġdelaying
Ġquant
Ġacids
antes
7390
890
elong
aseda
Sel
Ġacclaimed
Ġporno
ĠCountry
1466
8435
hr
Smart
Ġreleasing
atar
ĠChristchurch
ĠHis
Ġprobability
ĠWelsh
Ġauthor
Ġbackup
Ġcoffin
Ġmorality
2267
ĠAce
SIR
eal
returned
ĠSed
Jones
Ġfashioned
ĠPiazza
3125
Ġtroops
ĠPRET
ĠLabrador
ĠWinstanley
Ġdickhead
Cole
RS
Ġglades
Ġtrailing
ĠBB
Seeing
Ble
5199
ICH
ĠBox
Ġmindfulness
met
Ġscooter
ĠMurdoch
ao
Ġteenagers
8330
Ġemp
Ġdepression
Ġnortheast
Ven
Ġax
ignment
5492
6076
Ġcontaining
ĠNee
<image>
ĠBluetooth
ĠCabot
1688
rag
sc
4891
ĠGu
ĠMax
ĠCoal
ĠGear
couldn
izer
7888
ĠConvention
Ġallows
Yesterday
Los
Ġmos
Ġthen
5100
Ġconnects
ĠGroup
izar
Ġefficiently
lynn
ĠEstonia
ĠFuj
Ġlimitation
ĠGR
ĠBurger
ĠChak
Ġimpossibility
3138
1145
ĠNaval
shoot
ĠUSDA
utans
conversation
Ã©tat
Ġpod
Ġbarked
ĠDonna
Ġforlorn
Ġnucle
Ġcalculated
Ġcircled
ĠLegal
Ġexcluded
free
picuous
Popeye
ĠMahab
ĠCarver
Ġbridal
Ġturb
5909
ĠBryar
cab
6350
ĠMoses
Ġchaff
Ġcommemorated
form
ĠAGS
2402
cibo
rys
8783
ĠSchloss
ĠScan
714
erable
Ġrele
2029
ĠByz
8427
Ġgonna
Ġsurviving
Ġwhales
ĠChart
Ġhumid
ĠYer
Ġtraced
4232
Ġcompulsory
elling
Ġtipped
Ġrods
Ġsane
Ġsentencing
Ġmissed
riot
Ġabolished
ĠClem
ĠFRIEND
3420
Ġdirect
9175
ĠTHROUGH
ĠHep
ĠCorsican
Ġcalendars
Caesar
Ġdrunk
not
!"
Ġbudgets
Ġprob
5884
6714
Screaming
Flor
Ġsnapped
Ġspeech
holding
Ġlvy
?"
3003
Ġcrack
Ġattain
Ġeveryday
2348
ĠZey
2026
ĠEmilie
Ġinst
Ġaddiction
ĠThey
8747
Ġintact
ĠBeast
uates
Ġblunder
pty
ĠKIND
IDE
Sp
Ġunaff
son
made
8373
Ġclearly
ack
Ġlighting
Ġsophistic
ĠCanary
ĠChoice
ĠREAL
oglycemia
intosh
877
ĠHits
2139
Ġroute
lies
Ġporch
Ġflirt
Ġinsulting
Ġuniverse
Ġbrightly
Yeo
Goodness
Ġwrestle
Ġjuice
69
ĠHurricane
7742
ĠMurray
Ġstable
French
3139
beck
nip
Ġfinite
Mouna
ĠHunters
Ġdownfall
404
2125
Ġtug
Ġwinery
Min
Sec
FF
Ġacceler
bins
Wong
Ġgroan
ĠYeh
Ġbelonging
Ġdist
4390
ĠFinam
Ġsouthwest
ĠOdd
ĠBlotte
7174
Ġsill
63
Five
2028
enez
ĠMason
ĠAnimation
Ġbenches
boards
Ġcoronavirus
3441
ĠBRE
5181
Ġpleaded
Ġchose
5132
habad
Ġteammates
Ġoccurring
Ð
imbabwe
ĠMirror
arded
Ġcoastal
Ġcoincide
Franche
Ġcarp
ĠAshwini
ERA
ze
4902
Fern
Ġdestined
8946
Ġkaraoke
ĠKhe
perors
Ġboy
ĠDear
ĠDjib
problem
Ġhip
ĠABC
ĠRenaissance
2826
Ġlatest
Ġdarn
708
Ġevaluate
ĠBos
ĠKramer
Admiralty
LR
will
3427
um
Ġplace
ishing
Ġ1923
Ġoccurrence
Ġcounc
Ġpercentages
Ġexpect
Ġfarts
Ġfucking
Ã¹
hens
elson
ĠStr
OWN
Brand
Ġheadlines
Ġgal
Ġrecognizing
Ġpackages
Ġcancell
COM
Ġ177
Ġum
2787
Ġwitchcraft
Ġsmooth
Mart
Ġtalk
Ġterrestrial
Ishida
4045
ĠSilence
ĠGibral
y
endy
4345
1333
ĠLud
kh
ricane
Alas
Ġmoisture
Ġinters
8280
ĠTew
Ġboast
On
asket
Ġundec
287
footsteps
526
Ġdisregard
ĠCemre
4144
arl
ĠGovernor
IME
Ġ1905
4420
Lege
ĠCH
9069
3367
airs
THERE
Syl
Ġsmother
ITH
Ġhostage
1205
Ġprairie
2001
469
id
Ġ26
Ġsensitive
nell
617
ĠSanta
oretta
Ġimple
Ġillusion
cyclopedia
icated
alia
2998
ex
stic
rieved
les
Ġrarely
ĠAssyria
Ġrefused
3749
ĠHIS
ĠImp
Ġretard
Ġdeck
Ġswallowing
arence
Ùİ
ivin
Ġgift
olithic
Ġfen
ĠIong
Ġ2002
ĠClifton
Ġwindy
Ġactivists
Ġgrowls
VERY
Ġdaylight
ĠSURE
Ġdung
Ġconsiderably
ente
Cut
ĠBurmese
ĠTriple
Ġbub
Ġworshiped
Ġspending
9174
Ġperitoneal
Ġnose
Ġschedules
ĠCompared
incinnat
Ġgallop
ĠEll
ĠPlay
ĠTir
cups
ĠBob
ĠTHINK
onds
6060
Ġhalt
Ġstr
Ġornament
ows
Ġmassive
Ġdeeply
3141
Ġcontented
ĠWikipedia
rendered
Ġassim
ĠShib
Ġrattles
Fin
7792
Ġstere
ĠRogans
ĠSimmons
Ġchapel
ĠBroadcasting
Ġnob
Ġfreel
Ġtut
etal
pressions
ĠKeeton
ducers
bol
ĠWis
Day
2766
LRB
Ġencountered
ĠSke
3464
ĠTurtle
Ġcontempt
},
ĠTem
3800
Ġimperial
Ġpayments
3596
typ
Ġanswering
selfish
ribut
181
Ġelectorate
General
Unt
Ġbrew
1541
Ġguer
Ġinternally
ĠBub
Ġraspberry
Ġfestivities
Ġanyhow
VEN
ĠRich
Ġhedges
Ġsag
hard
amma
chard
Ġcipher
Ġfracture
Ġadd
3822
Ġlivel
eaux
ĠBLACK
2303
imes
Ġsoap
Ġlaughter
pin
ĠQuebec
ĠKom
2436
3579
iao
Ġemployed
8686
Ġcalcium
ĠJad
Mumbai
Ġsobs
ĠHonking
oxetine
3212
osive
ISH
Ġwatches
avy
taken
ĠCanadians
ĠEurovision
Ġfished
BW
ĠFrederick
Ġwhip
ashion
Science
Ġfictional
brÃ¼
ĠCir
Ġinto
Ġpose
Gon
Ġtend
rected
Ġlens
Ġhealing
ĠDOOR
Ġplaying
Ġmm
Ġuntr
Ġexpanding
2862
Ġcheeks
4490
Ġcrystal
Ã«
7145
Ġuh
704
GE
eness
mere
3353
Ġoptim
IRL
common
Ġduly
Ġmotorbike
Ġlengths
ĠButterfly
feed
Ġcoral
hawk
Ġcheats
1249
è
ĠMickey
whom
ĠRhodes
orsky
Ġitself
Charles
na
Park
ĠUnity
1675
Ġwoo
isition
Ġsignific
Ġbony
3475
kers
806
OP
Ġautopsy
Crazy
ĠOlivier
5159
Ġwage
Ġvertically
ĠAssault
Ġexploiting
4695
Ġentrances
Ġthese
4402
)}
Ġimpressive
Ġparano
Ġswiftly
Ġaudit
ĠMontgomery
numbered
Ġchoir
asks
Ġ1930
1446
4371
Ġmadness
1153
lig
ĠMaj
Ġsurface
might
Until
ĠJessica
ĠPhilharmon
2730
ĠPure
2068
otesque
Ġlanded
Come
Ġforgiven
Ġbuild
een
Ġpneum
6905
aska
ĠStevenson
ĠDinamo
ĠTwilight
Ġproxim
ĠEugen
awab
Ġcorrobor
rain
8086
2700
Ġvolcan
6175
3597
6908
Ġwith
ĠSecond
ĠChoudhury
arthe
Ġdangerously
Ġbrat
iar
ĠEdith
Ġunwilling
ban
2962
Ġguaranteed
dying
ĠFalcon
Ġnoteb
5188
Ġbay
ĠEl
AII
ĠMoe
ĠFront
ĠGeneration
ļ
Ġdriveway
ĠMermaid
Ġprop
Ġdeliveries
sail
1135
ĠSacr
ĠAztecs
Ġorb
3680
knowledge
Ġcatastrophe
Ġsuperiority
fear
Ġmedicinal
Ġfarmland
5367
ĠSty
1640
ĠAcha
Ġroy
ĠPant
Ġlung
1778
3130
Ġchallenging
eca
ĠJoanne
Ġeval
ĠDunbar
Ġpotty
itzhak
Ġsleigh
5418
Ġhopes
ĠSÃ£o
coins
8422
Ġbottoms
ĠRailroad
Ġtidy
sex
8781
Ġinvaders
ĠCair
ĠTil
makes
2115
ĠHarrogate
Ġsilken
Ġcongrat
Ġcamping
ĠClifford
Ġgaming
ĠRomanized
Ġrules
Ġemerges
ĠBush
Ġdisclosed
1399
Thanks
Ġsloppy
Ġbounce
Ġargue
Ġbetrot
ĠParkway
Å
Ġslots
Ġchival
ĠThom
Ġmesh
pperm
lining
oud
cles
Ġmisleading
574
Ġchairs
Ġmercenaries
Ġarchitect
Ġprophet
whoops
Ġstormy
3712
ĠShankar
Ġsexual
speaking
Ġcoke
Ġvictories
Ġdependent
bercul
Ġbreathless
Ġimplied
Ġpau
Ġshameful
Ġbracelet
timer
989
Ġanchors
Ġcorrection
Ġtranslating
Ġ[
evil
Emperor
ĠRousseau
communes
SINGING
2546
2282
British
Ġ1933
Ġrevolting
freedom
Engine
Ġorbits
Ġnext
Ġscored
Ġinfinite
Ġdid
Ġlikewise
enses
80
Ġfuck
Ġreci
Ġpoult
3030
Ġdetermin
Ġmadame
orset
Ġupon
Ġinsignia
4050
Ġdescending
5718
Ġ1520
pre
Ġcomrade
8798
Ġwarden
ĠCharley
Ġwitness
ĠElse
ĠGuards
Ġthread
ĠLaughter
cut
ĠBaseball
ake
5099
Ġgroup
Ġcarry
Ġexplicit
7192
Ġatom
icularly
Ġtoughest
ĠSeung
6689
Indistinct
Chald
ĠBelieve
Ġobe
ijer
1864
6679
Detective
Ġexpenditure
ĠHegel
7214
Ġavail
pressed
ĠTribune
Ġfolding
AT
bies
Ġhockey
7208
ogy
ĠGaul
music
4118
Ġrespected
Er
Ġwholesome
LC
5677
;/
esc
ĠTable
wound
Ġdedication
opus
swatini
1552
ishly
oon
Ġest
Journal
760
ĠGermany
lle
endorf
._
contact
Ġunemployed
ances
1379
ipha
cheng
otte
ĠNeu
Ġserves
ĠGladiator
Ġcultures
ĠAcon
Ġfollows
ĠRolling
ĠShi
Try
RING
7173
5312
illaume
Notable
Ġparenting
ĠArnott
Ġadditionally
5364
8223
Ġclick
4104
Ġpleasantly
obar
cisely
Ġbiographies
irm
eton
1137
Ġimagining
Ġimplicated
5284
Ġpapal
adder
2070
Ġerotic
7216
ronym
1403
8862
Ġpriceless
omm
etooth
8849
Î¸
Ġpersuasive
court
Ġobed
Tis
facing
ĠHewitt
Ġguid
Section
Ġutter
Funny
7369
Ġcollections
1885
bacco
ĠSeo
Ġsmiled
Ġstarts
Ġaspect
Ġforeign
Ġphoned
Ġlounge
5796
Ġstrove
Happy
ĠThousands
ĠMerlin
ĠUS
Ġpurring
Ġsunk
ĠGoethe
iction
apes
ĠFris
Ġmous
Ġpitch
Ġcounties
6945
Ġgraduates
ĠBrook
ĠMotor
8124
32
ĠCE
7774
Ġwhether
alled
Ġbattle
Ġdegener
8380
Ġwavering
Technology
Steven
Ġcredentials
Ġdied
Ġbert
Eliz
180
ĠMess
4719
Ġrepressed
Ġsacrifice
5757
Ġgotta
Chairman
Ġcommitments
6751
Ġretros
Ġpigeon
7693
Ġemphasized
Ġwret
ahas
iolet
Ġpremier
Ġbids
6137
Ġcaptains
uesday
ĠChloe
tting
Ġjackal
Ġsurfaces
7840
Kaskaskia
ĠBenny
861
Ġgovernments
Ġindigenous
ĠConnect
7305
antry
ĠCommand
Ġnuns
Ġdeploy
Ġot
Ġretreated
ĠEAR
gonal
2086
Ġb
8695
Ġboasted
5959
flix
258
ycle
lah
clothes
ĠChapel
ELE
ĠCanyon
agher
martial
Mahon
Ġcarn
Ġoffense
leston
Ġnortheastern
Sm
Ġattempt
Ġ51
Ġsudden
Ġroll
Ġ1979
Scan
icts
Ġvomit
emia
ĠDIFF
ĠZurich
Ġaccommodated
Ġimaging
Ġselective
Ã¢
serving
lBLE
1750
ĠtÎ¿
Ġpoking
Ġtournaments
ogan
ĠAnzio
ually
amins
605
900
Ġpublic
Ġinj
2483
hoe
Dou
Ow
ĠZara
2829
cycle
iform
ohr
orra
Ġtower
Ġharshly
Ġstudents
ĠGon
Ġiced
itha
established
Ġancestors
7805
ĠUnd
3321
3997
Ġrings
direction
ĠObi
Ġheav
Ġ1968
owards
Ġdec
Ġembark
aja
Correct
Ġinflation
iott
7762
Ġide
2606
ifix
Ġconv
Ġscouts
Ġrepeat
Ġcommunes
Ġdragon
Ġkeys
Ġrides
Ġenjoying
cent
ĠCleveland
ouds
ĠAvonlea
Ġprotectionism
Ġjudges
ĠAlbania
Ġleopard
6185
5320
Ġpatronage
.),
Ġproble
Ġmaj
Ġacoust
Ġraces
¾
Hard
atus
3114
Ġuncover
ĠHoover
Ġbrilliantly
ĠPAN
AU
Ġexam
ĠEb
ĠMarket
ĠShutter
anskrit
6651
Ġast
Ġinterruption
Ġtwilight
ĠSHOW
Ġrim
Ġdea
ĠHuntsville
rÃŃ
ĠCheltenham
Ġgradu
Ġvit
Maimie
ter
forms
Ġcarcass
Ġsentence
ĠChallen
minar
4157
ĠGreek
ĠPOWER
Ġko
3450
ĠAbdel
ĠÃī
Ġcrowns
Ġunattended
Ġdrives
Ġceremonial
Ġfrock
DE
uppet
ĠPakht
Ġbargaining
Ġ1808
IGH
Ġbells
ĠCover
Ġboughs
5450
ĠCra
ĠPiedmont
cies
Ġ457
Mae
ĠMuhammad
ĠKumar
Ġbreakfast
Ġaudio
bras
Ġchores
Ġirrigation
ground
ĠNav
?-
Ġtheft
azor
Ġduchess
Ġdeparting
5425
Ġdiabetes
TNA
ĠBeto
Ġwhence
Ġplank
Ġbri
orph
Ġstocks
Ġmanipulation
Ġmam
ĠChristie
Ġconfines
2527
SmackDown
3095
Ch
Ġmarsupials
Ġjunction
Ġgrand
ĠWILL
ointed
ĠSwift
janus
``
Ġelement
ĠTerritory
ĠPeter
ĠDard
ĠLeela
Ġsilver
1565
Ġmedieval
....
Ġjokes
6682
ĠChing
5162
Ġorthogonal
3761
Ġbasin
ĠAval
Ġconsisted
Natural
ĠKen
Ġj
2660
Ġfridge
uch
ĠIndo
Ġfaults
3878
ogra
Ġseemingly
ĠWA
Ġfission
Ġenables
ĠChristopher
198
282
Jimmy
Spain
Ġquid
Ġunlocked
ives
ĠHur
Ġnatives
Ġbegan
don
ĠLoyal
inem
Des
Ġairplanes
Ġmagnitude
ĠDaw
Emb
2266
ended
Ġinter
ardon
1672
Ġdictators
Ġrazor
ĠChamber
ception
Secret
ĠArm
LO
usting
ĠTravis
Ġapplies
Dal
Ġconverts
Ġcopy
2344
Ġbowl
992
1166
rum
ĠLily
Shortly
ĠLong
5626
bloody
Ġsolids
Ġjack
Ġ257
Ġemphasize
Ġhearty
ĠIrishman
ĠFernandez
Ġheating
Ġvalleys
Ġpreced
Ġfor
oration
unci
ĠCampbell
ĠGandhi
ĠFinland
2368
ĠAuthority
8496
Ġevacuated
Ġgeometric
consciousness
313
aron
2640
HA
Ġimpost
Ġerase
ilated
Thomas
6758
1060
8414
Ġsnarled
Ġyon
pol
ĠSal
ĠBaptist
Ġnoun
Ġanalytical
Fe
6439
ĠWSE
Ġbrill
Ġfreshman
uren
baum
Ġ201
hed
illors
ĠEp
6280
Ġ124
entirely
Ġarcha
Din
meaning
Ġpunishment
Ġpious
Ġtractor
Ġsteeple
Ġavoiding
ĠSolar
acio
Ġlasting
ĠTeachers
elphia
ĠMogadishu
7367
ĠMicrosoft
Ġjeans
Dra
ĠBÃ©
Huh
Ġscreened
inoff
uisance
ĠKet
ursday
ĠStalo
bea
khkh
3269
Ġrejoice
09
ĠSunny
ĠJer
ĠWalk
ĠCorsica
Ġcamel
5731
index
ĠMetropolitan
ĠAndy
Ġcompound
Aud
8805
jour
3149
ines
ĠGar
Ġstiffly
Ġfreed
3801
Ned
Bor
Having
Ġrefres
310
cemia
Ġtalkin
7570
ĠSwami
Ġassassinate
Ġunpre
Ġdespatch
Ġguerrilla
ulence
Ġey
within
4212
ĠFreed
ĠYek
Ġcontainer
5114
Î¿Î¿dy
Ġbilingual
ationally
just
3847
Ġnewsletter
Straight
Ġfan
ĠRT
2987
ĠHenriette
Ġlocal
ĠConstance
ear
4705
ĠMahabharata
Ġintegrate
Ġvortex
1252
Ġfictitious
Ġdub
fit
ĠCalgary
1488
inha
Ġburgl
ĠJacob
Ġbangs
isbon
ĠLiverpool
Ġfuss
Ġcontrol
ĠHerman
785
Ġbaker
BM
Ġstuffed
Ġhappiest
LOOK
Ġgenius
cons
To
8001
ĠPaulie
Ġactivation
ĠUntil
Ġfriendship
Ġsure
ĠBingham
Philipp
inker
ĠSAME
1236
8965
Ġhides
ĠOtto
ository
rigue
ient
8259
772
inally
Sax
ĠHand
ĠThen
ĠSEC
spread
icho
4224
ĠJackman
ĠMiyan
Ġenvis
Ġassess
Ġexceedingly
Ġexploited
born
Ġpresentation
ÂĿ
7171
Ġpersistence
ĠSynod
ĠMan
your
alle
2630
fortunate
ĠTO
Ġsticking
Ġwithdrawal
ĠAye
ĠYE
Ġteaching
ureau
Ġquo
Rippley
true
ĠTennis
2953
Ġsurge
Ġmaximum
ĠMarvel
Ġseal
Ġkinsman
ening
3858
2467
Ġbreakup
ĠMacKenzie
ĠRace
omal
3218
ĠShane
handed
7342
8336
Ġchildhood
Ġbouncing
bula
Ġdripping
ĠSerpentine
Ul
ary
Ġupstairs
1966
Lynde
high
Ġunsub
urg
Ġfain
Neighb
Ġbiblical
Pour
ĠBri
Ġinspection
Ġtimid
Ġconsensus
ĠCircular
oux
tu
Ġthereafter
Ġproceeds
frith
Ġangel
ĠSarac
Ġafores
Ġanthem
Brook
ĠHullo
Ġshat
Ġstoned
ĠSus
Cost
ĠMagellan
ternational
ĠMadison
ĠHoffman
Seriously
3502
K
antime
3989
Ġconstituted
3707
6879
eav
434
Ġar
Ġmother
Ġcomponents
Ġcirc
alright
3746
Ġvoters
Ġwash
ĠEliz
2248
ĠArrow
ys
2226
ĠBulgar
PO
ulls
Ġscrewing
Ġcaptivity
ĠEntry
2841
1776
Already
ĠWire
eph
Ġfloats
Ġimpert
5428
ĠKushk
Ġhotels
este
Ġunusually
ĠDuc
ĠMersey
ormer
Ġessentially
boo
ĠNora
Ġtesticles
ĠYou
Ġsteps
Ġmystery
Ġstony
ĠAmir
Ġacquaintances
ĠYahoo
ĠDED
ĠAaron
Ġslate
5789
idel
ĠBobcats
ĠHim
Ġsoils
ecutive
Ġaccent
Ġguy
Ġ1900
ĠSpir
Ġquer
Ġbiscuit
Guess
Ġmatch
2897
Ġhang
1202
Ġya
Ġpainter
ĠDing
Ġexpans
Ġdivides
Ġfluor
8700
ĠAbraham
2635
ĠArmed
iop
Ġtooth
enry
Ġhandling
emary
ĠVo
746
igma
England
passed
Ġeyed
ĠCleop
mails
Armenian
ĠBee
Ġinviting
2562
Ġtoday
ajor
Ġpremiered
Ale
Ġfainted
ĠDONE
Ġdro
2447
ĠJul
glas
ĠDe
Ġcraw
547
7340
8195
emics
ocracy
iÃ¨res
Administ
isher
Ġbirdies
vani
NN
osta
3472
Ġbroom
Ġauntie
ĠAlaska
shots
Ġpred
glass
ades
Ġweak
ĠShahr
763
5589
ĠNets
oundrel
ĠJoint
2600
ĠLloris
Ġlegends
865
Shot
ĠAx
1907
Ġtot
Ġsegment
Ġunp
gog
ĠHonour
6748
7735
ĠBurg
ĠSell
ĠFIVE
Ġpolem
Ġnewspaper
Ġeventually
Ġ1955
otta
Ġpr
Ġindicate
663
akh
case
Ġrape
ĠWeek
ĠWagner
2283
8006
Ġether
Ġhierarchy
Ġoops
4453
Ġresolve
Ġ***
anker
Ġusur
5886
MET
Ġremnant
ĠMarvin
ĠSp
Ġfort
Ġdisagreement
1982
ĠSchweitzer
wny
ucco
784
Ġcarts
nergy
Ġapartment
owder
Ġhoneymoon
9177
Ġbodyguard
Folks
asant
asse
2020
8175
CONTINUES
ĠSea
1142
Ġcriticism
rem
Ġblonde
Ġmatern
Ġboiler
7756
Ġlullaby
Learn
Ġpolly
poem
Ġexceeded
Ġ9
Ġexcept
Ġkindly
Brandon
ĠEconom
Ġneeding
elfast
ĠSule
6277
8596
Ġquarrel
Ġbil
Ġlaun
397
ĠEthan
Ġlacking
Ġentries
laughs
8156
Ġdisconn
ĠLibya
âĪ
Ġtheor
Ġdeities
itself
8428
ĠRama
Ġstim
rait
lives
?!
Ġmodern
Ġrebu
ĠAires
Ġlump
Ġguided
7876
HY
lical
thoughts
Ġactivism
Presumably
Definitely
Ġtongues
7469
ĠMarshall
ĠBL
Ġmissus
ĠFrancisco
Ġmalicious
Ġdioxide
Ġtranslate
ĠGangazara
pour
indled
Ġshrew
estic
Ġamb
Ġhardship
Ġoutsider
Ġludicrous
Ġ1776
ĠJO
Ġillustration
ruled
318
Ġhors
Ġmolecular
Ġbuilt
5308
5901
alez
Anyhow
5787
Afric
5746
Ġnovelist
ĠGrunts
aculate
MlD
ĠManager
Ġdesigner
ĠStoke
¤
Ġdiscussions
ĠBEST
Ġimproved
Ġcomplaints
ĠStars
ĠFisher
ivorous
Ġconcerning
Ġdined
ony
Ġ1985
ĠSpeed
ĠMichel
uence
February
Ġcontributed
262
ĠErnst
ĠBatt
ĠSmall
uting
aac
feet
7237
2388
Ġloosen
Ġpronunciation
ĠTrolls
Ġslept
Ġritual
Ġprolong
jected
ĠTher
Ġsouven
6729
Ġstrangers
Ġconcur
shan
Ġoxide
have
Ġhomosexual
Ġimper
==
ĠCroatian
ĠAmmon
Ġcompatibility
2682
iated
Ġhereditary
Ġmattresses
Ġjeez
1767
ĠWithin
ĠAmÃ©
chev
3486
2015
Ġtopic
Ġmarrying
math
1731
Ġcapitalism
Ġmammal
ĠUSB
itory
Ġtolerate
Hi
icosahedron
ahs
Ġheightened
Ġflue
Ġsocietal
Ġcorners
1632
foundland
Ġequal
ĠAnglo
Ġmedian
Sunderland
ĠBlu
Ġmill
Suff
dÃ©
Ġdev
Ġsensation
ĠLear
3338
ĠGERMAN
150
ouching
Ġ325
Ġcharities
Ġcombine
Ġdemanding
Ġlogs
Sports
ĠLuk
2549
Toole
Ã©s
Ġfinale
rences
Ġpowder
Morning
2703
SPEAKER
ĠTomax
Ġrespectable
Ġunm
Ġjammed
Ġslapped
ĠBulgarian
330
Ġden
Ġfell
Ġlo
Ġcreed
Ġtrifle
Paris
Ġvariants
acao
6376
2491
Ġtranscend
anova
6823
obiles
gs
Ġhonking
Ġsecurity
greg
Ġoppress
ilica
ĠAddis
Jennifer
3783
3377
4325
ĠAlbeck
Ġattendants
ĠSche
accompanied
Ġturmo
Ġru
Ġraising
8855
V
3853
Ġsilt
äº
1434
brand
VE
ĠSalvador
Ġhorde
ĠPac
ĠToo
Ġforth
Ġ1717
228
4352
Ġchords
lio
Ġpulled
Ġvroom
ĠWide
ĠWELL
KA
6835
5438
ĠIdea
pple
4704
Ġcountryman
ĠEarth
6090
hor
iastical
Sire
ĠPeshawar
Ġproceeded
ĠDec
ĠEllie
Ġneighbour
ĠKrishna
5500
expl
ĠMCRI
LAB
Ġ(;
Ġarmour
ĠCathedral
breakfast
mut
asium
Ġ+
Ġmarketing
Ġgleam
Ġbombers
aku
Ġcarbonate
ĠNature
Ġpentagonal
Ġinclined
ĠMadame
Ġrisky
7783
ĠChopin
ilert
ĠRules
Ġirrational
Ġnegatively
plet
Ġbumps
4219
2146
ĠSaud
Ġorgasm
Ġunderm
!.
Ġwatching
Ġdisciplined
Ġconstrained
Ġdeclining
Ġloch
Ġprodig
Ġlicked
Ġft
Ġbravely
Ġconcealed
Ġironed
5826
Ġrival
Ġmall
Ġbra
ĠGeorge
ĠMAC
Ġsucceeding
Ġsalmon
adoes
ustain
ĠArmstrong
Ġloud
Ġfolia
6316
uro
irus
Ġconfidential
Ak
ĠElliott
ĠUgh
5869
ĠPhot
ĠPond
Ġcapacitor
03
2582
Ġspray
compan
Ġadopted
Ġinternet
960
6749
Ġsuits
ĠEverything
Ġugl
ĠLaughs
ĠProceed
MALISE
ĠLeigh
ĠMeteor
Ġanticipate
Ġdelivering
ĠEthernet
Ã§Ã£o
Ġmoment
4852
Ġinventor
nberg
Ġsanitation
ĠIsabelle
Color
1588
5717
Ġerrand
ĠMortimer
3609
Ġceased
ĠBrend
Ġlun
Ġlov
Education
othed
£
Ġmot
Ġstinks
Ġpinched
ĠAis
Ġordeal
Ġretrospective
omo
6852
Ġfields
5461
Ġforeman
9135
ĠNass
oos
Ġpyramids
emet
2315
Ġnightmare
isto
Ġranging
8834
1734
Ġpeanut
Ġholder
Ġfret
Ġapproximate
Ġsharply
rev
Ġquar
Ġswee
ĠKie
ĠWPBF
Ġstressed
Ġdepressing
Ġoriented
Ġcondemned
Ġtin
3730
ĠConstant
yrac
921
2764
Ġcommunicate
Ġstrung
ader
ĠParis
ĠRegulations
Ġunheard
ZZ
Yuri
Father
ĠMister
Ġdulness
Ġentirety
Ġattent
Ġpeekaboo
Ġslab
ĠGreat
Ġspider
Ġinqu
ĠBuzz
ylum
Ġcance
02
6683
ĠDenn
Ġperforms
5355
ĠAnthers
omac
ĠPerkins
4377
6979
Ġfreaking
Wilson
8675
6395
tur
tenstein
ĠMurder
Ġstress
othermic
ĠLow
Ġrookie
Ġwasted
ĠMorrow
Ġevangel
Ġbaptized
Ġpans
Ġdelayed
Ġdeliberately
Jam
Ġch
Ġdealing
Ġposters
Ġwistful
Ġigneous
ĠIndust
atini
Ġstealth
4200
2143
ĠPlaying
Ġ400
orus
Carlos
ĠHumber
Ġskate
uyu
Ġopmask
Ġlocomot
;-
Ġgovernance
Arul
Ġmounted
4970
Ġreceipts
ĠVerilog
Ġoverall
Damn
Mad
allowed
Ġkilo
aga
572
ĠBast
ĠContinues
ĠRank
Ġcircus
ixe
nance
Ġlocket
support
Ġtexting
ev
val
Ġharmless
eteria
Ġpraising
ĠDong
whose
ĠWl
inda
ĠCB
Ġpicnic
Ġammun
Wouldn
2543
ĠBoulevard
sold
getting
ĠBaj
ĠSTRAIGHT
Ġbelonged
Ġcategor
3204
8226
ĠSpeak
ĠAunty
ĠMB
gia
Ġoats
ĠSolid
ĠCrew
ĠNorm
Ġgrav
Ġhurts
ĠJar
4594
8499
ĠRoses
<|endoftext|>
ĠMeanwhile
ĠBarack
Ġideology
ĠBlow
biz
Ġhandled
Ġsportsman
Ġruin
Ġcarcin
Ġsubmerged
Crit
ĠCa
Ġgenera
5394
ĠBasseterre
ĠGuest
à¦¨
7232
Ġmarijuana
tenance
Ari
Shiv
abar
employ
umin
Ġparagraph
ĠGreeks
YES
'"
ucker
Cube
Ġsigh
Ġez
Ġbridge
ect
Ġdodecahedron
7217
aditionally
Ġraw
ternally
Ġsalaries
atur
ogenesis
Ġbiographical
ĠSlam
ĠTrel
Oliver
Ġcrews
Ġelectronics
band
ĠDecember
feller
Ġabsurdity
ĠXer
thief
Community
Ġva
Rom
Ġcognitive
eredith
;&
8362
gression
Ġshowing
Admit
Ġindisc
mentioned
Ġglued
á½±
8154
oiselle
Ġrevolves
ĠAwards
Ġgrat
Pal
hydr
ĠDuart
8507
Ġperpetrator
ips
ANTING
rsula
"),
ĠMaimie
Ġholly
Ġchick
2672
arten
Ġborn
8123
ĠPrince
Ġ620
Ġaxis
1358
Ġheel
Ġdragging
Ġcow
Society
lapping
ĠDiet
ĠGetting
Ġsynaps
ĠLaney
King
ĠAtlantis
9167
JUST
Regular
195
Ġprefix
674
5453
Ġputs
celine
583
Ġrepose
Ġperform
Sidney
ulance
Ġastronomers
ĠAbd
Christian
Ġembarrass
Ġinvention
2106
illian
Count
7676
ĠPhilippines
Ġstuck
Ġinher
Ġrotor
Ġgreatest
hs
Bre
Ġtechniques
Ġsitu
oopers
Mik
Ġwhile
Ġpins
Ġphysical
4211
Ġpoverty
Ġsupper
Ġsurprises
549
Ġtip
Ġiss
Ġpint
Ġaccl
Ġbachel
Ġsystematic
5186
6203
ctrine
Ġabsence
8418
9164
ĠFarn
isec
ĠSwaledale
rarily
Ġvomited
wants
ĠBj
Ġgone
Ġdependencies
Ġshut
4272
Hal
Ġfear
ocese
ĠLaure
ĠMaurice
OPLE
Dire
riots
ĠHence
Ġdenomination
ĠQuincy
ĠRenault
Ġcrossover
Ġcommunicating
ĠJalandhar
ĠBotts
Ġcre
Ġextraordinary
4168
5905
ĠRus
Ġwarmly
ĠBrazilian
Ġquiet
league
ĠÎ¼
River
Ġdecorating
Ġconsonant
ĠSaf
GASPS
bury
Ġpir
Ġswim
ĠBeverly
Ġcaring
Ġcens
mega
Ġthrust
6411
ĠEighteen
ATlON
Barney
3826
ĠÂ¹
Ġabc
Ġstarving
nut
cry
peace
ĠFO
aced
ĠThomson
Ġdevelops
ĠTet
aryn
tobe
Return
Ġrealisation
0001
Ġhermit
2063
ĠBoom
Work
5855
Ġpresidential
Ġshattered
Ġtar
Ġgirlfriends
agon
Ġtherap
Ġdevice
bele
341
ĠBarber
Ã©dÃ©
ĠCedar
Ã»
ively
4079
3530
Ġ86
ĠMegan
ĠROMA
persons
agle
function
ayashi
remarkable
5719
ĠACT
onday
ĠOswald
7325
sens
Ġidea
castro
traditional
4759
821
Ġunanimously
690
3230
757
Enough
Ġpizza
8368
Ġpowerful
cip
ĠVienna
374
5800
8356
Ġstyl
Ġicons
ford
Ġmatrix
7855
ĠRitchie
Ġleast
Ġwondering
Ġdistinguish
uating
Ġaccidentally
ä¸
Ġspectacle
Ġopin
ishment
849
ĠLoy
What
Ġchar
Ġlull
ĠLuisa
ipher
apeake
rocess
Ġbarley
Ġtwelve
ey
ĠDy
2557
ĠLevant
ĠGrove
Ġgate
ast
requ
7381
Ġmedicaments
2902
661
Ġexpense
Ġflooded
ĠWork
ĠQui
Ġunderground
Making
Ø³
ĠOcc
irable
EE
Ġdummy
ĠPun
Ġmemo
iful
Ġernie
ĠBeginning
make
2713
button
Ġpasta
Ġlapse
Ġdefinitely
Ġintro
Ġfearfully
Ġspoken
6154
hile
535
umped
Ġwoods
ĠSouthern
Upon
Ġpuppies
Ġship
ĠMichele
unks
adic
vie
ĠMira
Ġ2018
brown
morning
date
4175
Ġclimates
Ġcrafty
ĠKurt
Ġcham
ĠDodge
Ġbottles
Ġantiquity
ĠWords
rama
Ġcommands
ISON
2134
Ġperiod
es
Ġjungle
Bloody
Ġmechanics
ĠLeim
4859
LD
Ġbios
Ġmangrove
lysses
Ġwits
Ġpausing
Ġlag
aund
ĠRecord
Gold
Ġumb
Ġpoliteness
Ġharmony
Ġroo
Ġ<
Addons
Ã¸rgen
mon
Ġhumans
gars
899
Ġcomplet
5504
Ġhasn
Ġunconscious
ĠPhysical
Ġprefer
7223
Ġmult
istical
3169
304
ĠDean
unity
Cir
ĠFranc
Ġshitty
thank
Ġchanges
5466
Ġcoff
Ġfacilitate
ĠDurham
2087
drops
merchant
ĠAlgiers
ĠRs
1037
Ġ2014
Ġbothering
asso
ĠMonastery
isch
4861
6162
ousing
8199
Ġcounterparts
Doubt
7447
Ġregards
2052
ĠAbbas
ption
Ġnumbered
Ġdepress
Ġoutlook
cleft
ub
6478
Ġcontroll
A
372
Ġtolerance
Ġpall
Ġtourist
ĠBirthday
ainen
Spanish
Neil
Ġcricketers
ĠWORK
rete
1465
ĠRemember
8394
2215
esterol
ciences
kind
Ġdiscom
Ġhabit
Ġinspectors
Ġ1801
2535
Ġfest
2410
7262
Ġinherited
iaz
ĠCardono
Ġwarrant
ĠMystery
ĠAlb
4829
ĠNapole
ĠAdditionally
Ġinitially
ĠBuddha
ĠHP
6837
Ġturmoil
Ġdame
RYING
Ġrebelled
osh
inous
ĠCreative
Ġ1775
Ġunex
Ġsus
1961
ulators
Ġmystical
7791
ĠSmy
ĠTaiwan
Ġprevents
Ġpointing
Ġloyal
en
Ġwa
ĠOnt
Ġbroadcast
ĠFiorsen
Ol
know
point
ĠPrefecture
859
1556
eneath
ĠOats
Ġenanti
6475
hay
ĠButt
8685
2074
Ġwitnesses
UGH
oba
Ġmess
Ġinte
Hop
Ġlicense
pher
Ġsatisf
Ġeman
Ġprivileges
7768
ushman
meat
otherapy
Ġcrystall
forced
Cop
represent
Ġefforts
6645
ĠTatar
3862
pr
Ġmating
kaid
ĠNingthou
ĠClaudia
Events
ĠGT
etera
eve
otho
ĠTrust
Ġhex
Ġflags
Ġvan
ĠZen
Ġsolicitor
usk
2772
Ġstabil
Ġcurrents
zheimer
unda
ĠMub
Lisa
atious
thirty
6641
Ġchair
Ġvale
512
Ġherring
telling
Ġadversity
Ġmelt
Ġsovere
4708
anya
Alright
ĠMond
Ġwedge
Ġcoldly
plant
Ġreply
ĠMovement
Ġshapes
Ġathletics
Ġmaintains
ĠBlythe
harf
4507
Took
7464
ĠConcha
Ign
ĠPutnam
6818
ĠChief
Ġrunner
Imp
ĠCarls
Ġsacrific
ĠKLAUS
astics
Previously
aioh
atre
ottie
ĠGlasses
Ġappl
Ġeffect
Ġmatching
Ġweld
Ġconjunction
ospheric
language
6673
AndrÃ©
Hay
Ġfake
Lois
1055
4940
ĠSleep
term
ĠBurn
Ġprison
alleys
itsu
odus
ĠBreak
ĠCLOS
hampagne
707
demona
Ġlake
however
Ġcheerfully
Ġmisunderstanding
Ġoppose
boxes
ĠVenezuelan
Ġarter
2468
ĠKenneth
ĠEX
Ġinvoke
Ġsupplements
Ġdoughnut
ocre
Ġdrenched
Ġjelly
4560
Ġintersecting
auc
eller
Ġcleanliness
Smile
Ġincumbent
7125
Ġenough
6173
Ġkilometres
roydon
ones
Ġspotted
ĠPill
ambia
Ġcase
ĠLeisure
431
ĠFaber
tong
Ġstreets
Bring
Ġgentlemen
ences
Ġrealistic
hao
Search
atos
7069
ĠLion
ĠMako
onym
ĠVac
ĠTen
ĠRand
iam
327
offs
Ġswing
Ġtrailer
ĠKath
2839
abetes
6040
ĠGary
Ġdiesel
5464
ĠArt
Ġvertex
rium
}
aters
ĠArmenia
rennial
ĠJournal
Ġdod
8816
ĠHousehold
1341
Snow
eeze
9
xual
ĠHea
ĠMrs
Ġtan
bite
Ġfrescoes
Ġ1965
7394
Finally
--?
ĠPlease
ĠMansfield
Ġirrit
zo
Ġangels
ĠLights
ĠKatherine
Ġundress
Ġmuseum
Mill
Ġms
reeze
laughing
ĠBeen
phine
icum
dur
ĠRae
Meaning
Ġoutnumbered
6182
Ġgloss
Ġfiring
Ġsharpening
ĠTrobri
Ġcardi
Type
ler
annibal
Ġoverthrow
ifty
Ġbriskly
Ġpreserving
OWD
307
Ġamal
Ġearlier
Ġbere
itness
Ġassisting
ĠKlaus
ĠEnder
5443
Feel
Ġmutual
uda
ĠMilton
Ġadoles
ĠKunisada
ĠCannon
4260
Cast
Hara
Ġeaster
Ġseeds
Ġsmells
ĠNi
uen
4134
Ġcrawled
FI
Ġcompetitions
Ġconstituency
Ġtheo
Ġinvaluable
Ġque
itate
ĠLyon
6688
Ġtrivial
eted
Ġbundle
2437
ĠUniversal
Ġwhiskey
ploy
ĠPS
gy
Ġsunset
Ġtimeline
Ġabroad
sally
Ġhorizontally
ĠAz
shel
ĠIra
Ġpairs
Ġreveals
Ġ(),
viol
Ġrevive
Ġfoolish
Ġhead
Ġmu
8717
ĠCoss
9157
izoph
lights
Ġlose
ĠPeters
ĠGroans
nine
ĠKw
Ġinconsistent
Ġblames
ĠDrop
Ġsummit
itating
embled
ĠPhilosophy
ĠSap
Ġapprove
ĠVersion
Ġairfield
Ġlog
8254
oton
6454
¯
Ġembraced
Ġrestriction
porter
Ġworship
ĠItami
hit
Jump
ĠRomano
Ġspokes
Ġdesigning
Ga
Ġraisins
Ġafflicted
ĠEverard
Ġlear
ustom
ĠChance
4754
Ġcourage
7253
Ġterrorists
Ġembry
Ġinv
Wat
Ġmajestic
ig
1801
oring
Ġmicros
Ġparalysis
ĠMetro
ais
Ġcourtyard
Ġfactions
8140
reated
ĠWelcome
avig
5354
ĠTOGETHER
Ġperformers
2161
Ġnever
Ġfamil
ensions
Iaw
ancy
Ġchallenge
bishop
ĠGP
system
Ġbeer
Ġdermat
Ġrepeatedly
Henry
Ġwelfare
ĠIT
4283
ĠChorus
Ġpredators
ĠGuiana
ĠUncle
2621
ĠGad
Ġmelodies
1375
ups
Ġmilitant
ĠDonahue
Tracy
Ġbelong
Ġlips
Ġfrantically
ĠItarsi
Ġforecast
Ġrudder
ĠIA
Ġregarding
Ġkisses
baa
Ġ1821
ĠAleks
into
1923
Ġbringing
imag
ĠAMER
Ġreturn
Ġmorale
171
949
Ġenglish
hernobyl
276
7699
Ġgases
faces
Ã¡
Ġappeals
ĠReinhold
Ġshit
tenth
minton
ĠKanto
369
200
ĠNathan
Ġstrengths
Rolling
enary
!",
NlCHOLAS
5624
Ġwedlock
Ġplanet
zoll
2723
Ġspirited
Ġverbal
Ġsteamed
may
food
Ġvow
ĠApollo
ĠDiocese
Ġoverse
irl
Ġdenial
9065
1128
dire
Ġassisted
Ġcharge
Ġhappier
elleh
ĠLila
MI
Ġ104
ĠAlright
ĠSL
Ġlud
finding
Broad
ramp
ĠLink
Harvey
Ġblankets
Ġfamiliar
isions
Ġpompous
Ġincorporating
over
Ġpennies
ĠMargarita
Ġfunctioning
ĠLIFE
6774
Ġshrub
7233
8183
uds
782
ucl
Ġresponsible
ĠDaley
ĠVIETNAMES
Ġditched
olla
2951
Ġcirculation
reference
uzong
Cou
Ġmichael
8351
Nong
ĠBehind
Ġmanipulated
olin
Ġflee
ij
ĠSamael
Ġoxidation
akht
ĠSIM
ĠBET
ĠRomeo
led
iaries
Ġbic
ĠHK
ĠMatcham
8744
olition
erka
ĠLilly
Ġtraveling
Ġ1704
Ġpassport
ĠSuper
Ġpostage
Gus
Ġoutward
ging
ented
Ġgrenade
ĠMV
Ġdetect
geon
Benjamin
Ġpitching
622
Ġlupus
Ġenthusi
âĢľ
ĠBrisbane
1104
omiya
ummer
Ġqualification
ĠPreservation
1576
Ġuncovered
ems
Ġclam
ĠAren
sonian
Sometimes
138
Environmental
ĠMolly
436
1183
prop
ĠFra
outhern
itching
Ġbacking
ayama
Ġexhaust
askia
OKAY
Ġinfringement
unge
Ġcontin
noch
ĠBaz
8715
Ġasset
Ġdistorted
Ġrailways
5278
raviolet
ĠSealand
ĠSyria
attoo
ĠSalem
5317
ĠEuropa
Ġsquadron
ĠVictorian
2681
actions
Ġdump
Nik
ĠXi
Ġ1921
Ġquestioning
ovation
8825
Charlotte
1546
Ġhippopotamus
Ġspe
Ġwithd
ĠForce
Ġbeck
Scottish
Ġlinks
nor
ĠTurtles
sides
Ġmeasurements
Ġbroader
Ġkimchi
ĠTart
wan
Ġtum
6667
Ġrevenge
ĠJur
6484
ĠYuk
Ġreindeer
ĠComrade
Ġsaw
Ġreasoning
ĠHerz
ĠRuhr
Ġcaliber
ĠShu
laved
Ġsesame
ĠAmazonas
emption
dee
2699
Ġprogr
ements
antly
arsity
iale
ĠMaced
Ġparticipation
ĠMcDonald
4000
Outside
Ġforthcoming
ĠNinja
ephone
riac
1165
Ġ167
agram
ĠWWE
7473
Ġknee
Alone
ĠBoeing
ĠPenn
7909
6799
ĠFC
5192
Ġhandball
Ġstupidity
Ġpots
esch
5998
Ġvacc
ĠFashion
ĠBrendan
sexual
Ġhooked
Ran
aucoma
ios
racted
ĠBrandon
Ġ205
ĠSpar
ĠTall
1432
orthern
5086
Ġrendered
1176
ĠSaid
2426
3483
Ġscratches
aternal
ĠCAS
ĠWW
Ġblindly
yun
ĠAirways
ĠVera
ĠStudent
ail
Ġmotions
Ġnos
Ġfavorite
1773
Ġtraveller
ĠDisney
441
cs
str
ĠHEL
Ġremembered
Ġrelationships
Ġbunny
7126
ĠLucky
Ġrecalling
zie
ĠBethlehem
ĠFound
Ġcombining
809
Ġcausing
ea
3886
Another
ĠGay
inities
Ġmodules
Ġfaking
Ġideally
Ġchurch
Ġnets
ĠBritish
Ġvict
3265
flict
ĠBisc
9085
Ġgranite
7278
Ġlandscapes
Ġpenalties
Ġranch
Ġcritics
ĠObama
4778
ĠAlpha
enhagen
Something
3360
ĠCategory
rano
ĠAllison
blooded
Ġvoid
Ġfuneral
stant
Ġlar
Ġwilling
Ġobedient
5601
itis
5741
1072
Ġbould
Ġbore
Ġshout
6970
Ġunsc
oping
Ġarchipelago
developed
ted
Ġunreal
Ġ134
footed
3696
phe
Ġferocious
Ġbrachi
zi
Ġlibraries
ĠGranada
except
4009
Ġbout
iator
Ġmagnificent
ĠNikol
5478
Ġdessert
ĠGuerrero
Ġlid
veh
7727
Ġvile
Ġplea
pins
Ġdeepest
reys
Ġ306
Ġtumult
LEY
Ġbefallen
Ġenraged
ĠMÃ¼ller
ribly
reciate
ĠModel
2905
6950
Ġpragmatic
Islamic
Ġethn
Ġassurances
Ġjournalism
ĠBishop
5871
Ġpaternal
Ġdistributions
CP
Ġtangled
Ġpaganism
Ġhasten
851
Ġworse
4508
ĠMonte
8002
fo
ĠPlate
Ġglared
Mexic
ĠCons
983
7195
336
ÙĨ
GRUNTING
5214
Ġanswered
ĠInspector
Ġepis
Ġopening
8372
lob
bable
8607
Ġtribal
ĠSinak
Ġfrig
Ġtriggered
2239
bag
7867
1624
Ġsevered
Ġvillain
Ġunique
Ġsparrow
Ġflowering
Ġfingerprints
DL
akens
ĠTwo
Ġdiamond
named
Ġpriority
Ġdeputies
Ġvide
ĠJab
Ġstring
agascar
flies
Ġrealities
private
Ġhomage
eries
pend
ĠDOD
itars
ĠPe
Ġtiling
Ġpieces
Ġreform
1903
Ġit
Ġluc
Ġindustrious
Ġbetter
664
Ġcann
Ġexecutions
Ġpantomime
1777
ieval
BB
Ġclosed
unts
Ġshad
3833
Ġadjective
Ġsitting
ela
948
5875
1973
Ġdealer
Ġscenario
Ġrented
ry
both
Ġcertainty
4274
Ġpudding
Ġinvinci
ĠTolombeh
Ġwarmed
CE
Ġrevision
Ġsausage
Ġplainly
Ġtwinned
6768
ĠAntony
Ġnecessity
Ġspherical
Ġslipping
ĠDouble
Ġsem
ip
Ġprinciples
Ġauction
Ġoval
Ġreconnaissance
Vict
study
ĠDNA
Ġtwists
2868
ĠKey
Ġpresents
Ġpredomin
ĠSpec
ĠGentlemen
Ġedema
1535
ĠCassius
agrammic
Ġfoolishness
Ġgrowl
ĠEstabul
Ġkeyboard
Ġfetched
3470
ĠTwelve
thin
Ġghastly
Ġoft
4267
5852
anki
ĠAthe
ĠFrog
obody
phones
Ġlays
Ġdefer
Ġdepend
Ġmultiplied
Ġ"-
lesh
Kent
Ġhamm
Ġcontroversial
ĠFiji
aden
Ġbiom
Ġparked
Ġkeyn
Ġchoo
Ġ2011
Ġnuisance
track
Ġx
inton
obile
OB
rect
Ġbean
Ġ35
Ġ700
Ġoffset
Ġmentioning
Ġindignant
Ġdepl
Ġlaughing
2259
rored
ĠOccup
Ġ×
ĠPortugal
1468
4209
ĠStein
ĠOpen
OTHER
Ġlandsl
6787
Ġcholesterol
ĠWoodstock
Ġmaximize
ĠNico
2198
Ġ512
plus
Ġslaves
Ġrudimentary
unicip
Ġchoices
Ġpending
ĠGazette
Ġshaking
Ġ2007
isations
ship
Ġeldest
olve
avas
ĠPea
Ġmounting
1059
ington
base
ĠSte
Ġapost
Ġdubious
INGS
Ġ1830
Flash
Ġbasins
Ġchauffeur
American
none
hyll
ashes
748
Ġcreek
Mohammad
impossible
Ġ402
ior
uthanasia
Ġlousy
ĠWorking
358
...
Ġindependent
Ġminus
Ġvi
ĠPul
Ġpaints
enging
Ġtunnel
ÄįeviÄĩ
ĠNov
Ġelbow
Release
Ġdisorder
Ġsubstitution
ĠBIG
Ġpraises
Ġdigital
ĠJohnston
ĠAway
usoleum
1578
Ġpicturesque
Ġobservation
6036
ĠMorning
Val
Sighs
Ġcateg
Watching
Ġhung
Ġpony
5363
Ġrhombic
ĠOcean
4834
ĠDecree
2799
ĠCaptors
ĠAMC
Appreciate
Ġmalaria
Ġ1960
planes
Ġstupid
ĠTeh
Ġdotted
ention
###
Ġneedy
Ġ217
ĠDef
Ġbel
enos
itzen
Ġsympat
ĠFrench
Ex
remember
ĠBose
Ġposthum
tt
iami
interesting
ĠThereupon
kit
ĠTelemachus
parov
Ġdemon
inkle
Judging
Ġsequest
Legend
aimie
ĠFitzgerald
501
Ġcane
Ie
ZA
ĠCorpus
Ġshining
ĠOwens
Ġcatalogue
6797
Ġtamed
Ġguarded
affold
Suit
Mar
Ġpassengers
Tate
Ġcontinuing
DEF
Ġsubordin
4285
oppers
loss
Ġapproximation
Ġuniting
Ġbinary
3422
693
Ġdecor
strange
zards
Ġgrounded
Ġescorting
ĠOst
ĠSammy
393
Ġtwent
ĠCron
6976
3097
Ġbuff
ĠMonica
aqu
ĠHutchinson
1884
ĠiPod
Ġreminded
Ġlassie
Ġkilomet
lived
ĠDas
Ġcolorless
Ġunquestion
Raw
Been
ogged
Ġoperating
alling
Ġarbitrary
Ġdrawings
ĠMust
ĠCord
Ġshelter
historic
Ġhardly
6206
Ġstrongest
5465
Ġdowns
Ġstores
Ġretreat
Ġpolish
Fra
kittie
9099
ĠNile
ERSON
Language
Ġnich
undhara
7383
ĠMod
Ġstories
money
ĠEnvironmental
Ġesp
5683
ĠLing
Ġwharf
9103
Ġcontinue
ĠAllah
ĠGON
Ġvalve
8858
1994
Football
Ġfour
1860
3870
hea
Ġalternatives
Ġdensity
heh
Ġscarlet
ĠDul
Ġlain
paul
Ġstray
ĠJet
Ġskil
Ġsmould
Types
2492
3861
Ġjoyous
Ġphrase
Ġbegg
5413
à¨
ionage
gam
ommod
Ġawhile
ĠAliabad
with
Ġrequired
ĠStauber
ĠJa
ulet
Ġtwo
ĠShr
Ġenlar
ĠQual
brief
ĠFriday
IENT
Ġdrying
Ġendeavour
Child
ĠProtestantism
ĠUSS
Ġjurisd
ĠCommunications
Ġple
ĠNorburn
ision
ĠKim
ĠDevonport
uture
Columb
7879
Ġrainbow
Ġdead
Ġbehave
95
Ġregulars
anus
ĠGwyn
Ġinput
âĻ¬
Ġheavens
^
Ġscum
ĠABS
orcester
Ġredemption
ooner
ĠSpielberg
ar
nis
riss
08
ĠStri
Ġfact
ĠGiant
Ġfib
3234
Ġdoing
doors
Ġfaculty
Ġrecital
Ġsweet
248
ĠJew
Ġgrounds
Ġpasteur
balanced
Ġfooling
ĠThumbelina
1177
Ġforwards
ĠABCDEFGHIJKLM
Ġbazaar
itionally
Ġcontrolled
Ġsoup
ĠKiwi
ĠShri
ĠAphrodite
Ġrange
Ġintercourse
Ġnotions
Ġse
UE
related
3399
3124
Heard
Ġstag
Esc
ĠAbadeh
Ġmind
Ġrusty
ĠCLAN
hrmacht
ĠMer
pat
ĠTroy
2234
organized
Fairy
ction
ĠRide
Ġresilience
Ġ1903
Ġmunch
Ġabbreviation
Ġdeath
divine
Ġoversaw
osers
Ġimmigrant
ĠKam
ĠPil
3603
Ġsticker
ĠPalazzo
8325
ĠPI
ĠCitizens
Ġminim
Ġmouth
Ġallies
vi
8281
5445
Ġlivelihood
1892
Ġonly
Cle
ĠFire
bons
ĠQuant
Ġtunnels
Ġfigured
AUD
Ġcontemporary
ĠSting
Ġbillet
ĠEduc
Ġstraighten
Ġalter
ĠAllen
418
Ġspoilt
ĠSheila
ĠMelbourne
land
ĠPrincess
ĠOther
ĠLook
3256
Ġfeminist
chym
fiction
5386
ĠNacional
Ġvacuum
Ġcomposers
Ġambitions
2448
Ġpolitely
aircraft
ĠRud
Ġclassification
Ġpredictable
bar
ĠSH
Supp
8886
1587
cott
8382
ĠGor
Ġcommission
ier
Ġpassage
iki
isons
attalion
Ġflashing
1218
Ġsubscription
Ġsymb
Ġsank
Following
Ð°
Ġdue
Ġamazed
7936
jing
ovah
itive
ogue
ĠJay
ĠStephen
ĠMort
Ġmanual
ORT
2244
love
7660
ĠKane
WOMAN
7444
Ġexisting
Ġneither
ĠMemorial
Ġphotographed
blast
rawl
lins
fixed
utral
2307
ĠSales
Imm
Ġowe
Ġ)
1016
13
514
ĠIslamic
ĠBelarus
Ġinvestigator
556
6867
Ġbriefly
ĠBert
Happ
Ġratios
Ġstriped
Ġdesperation
ĠWichita
Ġaffiliates
5623
,--
à¸
3805
ĠDast
ULT
Ġspelling
ĠAgency
3167
Ġterritorial
Ġdistrict
2559
Ġimplications
Ġsanctuary
ensing
nants
Ġhandkerchiefs
767
yu
lÃ©t
s
Ġcooled
Ġturbines
ĠOntario
Ġforce
4506
Ġannual
Ġricher
gon
2585
2926
Ġframed
Ġdisgusted
Ġimminent
ĠHodge
6995
ĠMachi
Ġfaulty
imen
Berm
able
Jeff
ichita
ĠMissouri
Ġ1987
Ġbumped
ĠArch
Ġsubmarine
ĠChambers
7321
478
4636
ĠDevere
ĠAdelaide
Ġpowerless
oe
7460
ardment
Ġfoetus
Ġagencies
enter
Ġbreadth
762
Ġschooner
1080
ĠLess
ĠJoshua
ĠTort
Ġphant
Ġchuckle
Ġjesus
Ġcab
Ġservices
8142
ĠRevenue
3676
Johann
Ġtra
1225
ĠMiss
Ġelevated
Ġdee
line
Ġinstrument
ĠBOOK
Ġdesperately
7745
Ġdelight
Ron
Ġindex
Ġrecur
ids
Ġmournful
6715
ju
Ġprivate
Ġwards
ÃŃaz
2771
6842
iability
UFF
ĠRain
ĠSeeing
Ġcolonel
ĠSir
5687
ĠHistorical
8208
Ġdeterminant
rique
Ġfans
Perhaps
ĠHary
Str
Ġexperimented
ĠSeymour
Ġorigami
ĠROB
Ġbis
Ġrac
utt
Ġregistration
Ġ1881
better
presented
Ġmotiv
ĠHi
ĠConfederates
Ħ
Ġ1863
Ġchristian
CA
ĠPersons
Ġvisitor
verb
mmet
ĠBahrain
5633
Ġprotection
ĠLif
owski
4261
Ġmaib
Eventually
ĠMehdi
165
Ġcomplacent
2048
ĠMunicip
ane
Ġbir
today
Ġlive
essed
ĠHonor
Men
ĠHodgman
4358
ĠJosh
477
Ġback
7268
osie
Luis
ĠExt
Ġopens
Ġbulb
Till
Ġoption
Ä±
Ġrallied
ĠDo
ĠViper
agliari
actory
Ġ240
Ġdove
Ġembroidered
Da
ĠKilbane
Ġcomposing
Ġscarce
ptic
hus
Ġhush
Ġfumble
ĠGeographic
Ġcore
Ġassociates
2765
osso
Ġsuccesses
ĠGerry
Ġbare
ĠRussian
Ġinsurance
2227
ĠPE
ĠWan
Hor
Ġattorney
6257
uiyeh
Ġacidic
ĠLan
Ġinjured
aign
bal
ĠCÃ´
Know
SBG
ethan
ĠTruth
Tu
Ġchopper
be
Ġtoo
LL
haw
Ġdemolished
Ġgameplay
1651
igrated
non
Ġcomparing
matic
Ġabstraction
Ġcrickets
2332
Ġemerged
Ġtake
rations
ĠBentley
robe
Ġaggreg
acing
Ġcholera
aghetti
Ġprisoners
ispell
Ġindeed
prepared
Lim
repl
Gener
Ġvolcano
doing
Ġinsulin
8438
Ġdefined
ĠYuan
Ġoffer
Ġaccordance
Ġterrorist
659
Ġtramp
cknow
Ġacres
Ã©mon
1667
Ġshrie
Ġobstacles
ĠBoo
ĠStratford
Ġrogue
cross
3390
ĠNang
cope
rox
Cos
Ġprofessional
this
Ġcomrades
aine
ichi
ĠBrown
Ġmelanch
Ġ1844
something
Ġchemists
Ġgird
Ġ132
Ġlocation
ĠNar
Mor
Ġestab
unt
683
ĠColorado
ĠRaymond
Ġretained
ĠAdam
oween
8699
Ġautobi
ĠMole
Ġspectacles
Ġpolling
endment
Ġshipments
Ġor
defghijk
Ġassured
ĠRhein
Ġfreaks
shon
ĠEcuador
Alf
ATING
Ġeyewitness
Ġinscriptions
Ġvariables
Ġshooters
ĠPritchard
Sac
6343
Ġbassoon
ĠHistorians
oded
Ġpools
ĠXbox
Ġnominal
Ġbint
8826
459
Ġworkshops
1327
1505
ĠDone
Ġsoftened
Ġinteriors
Ġcreate
Ġwr
rens
2357
ĠNad
idon
ĠBam
ecess
Ġuses
ĠBohemia
riad
Ġ157
Ġargu
bringing
Ġec
Jor
bur
ĠWebb
8786
4112
Ġpants
Ġsenator
ĠCheering
9080
Ġisolated
Ġ1861
Hasn
Ġadultery
ĠV
ric
Ġcarnage
Ġcit
ĠDust
ĠGholam
Ġbrowser
Ġtyrann
Ġlup
ĠAnkita
ollywood
Ġnarrated
Dramatic
structed
ĠRod
ĠPi
alp
4675
ĠnÎ¿
Ġrobbed
1904
Ġexpert
Ġappetite
ithers
Ġfri
Ġmiles
Ġkindness
2922
Ġconflicts
Ġconstitu
ĠTories
Ġsail
Ġfinals
Ġvaluables
Ġstrolled
iss
Ġlaying
ĠBac
401
7179
Ġreopened
ĠOracle
4889
6130
Ġdivisible
Ġbeggar
MATT
Ġsewn
IFE
Ġperch
Ġflow
MT
umerable
laws
ĠFAM
Ġexports
Ġsteady
...'
Ġspatial
idl
Ġfou
pro
Ġ1971
ĠNag
Ġpredict
nÃ©
April
ĠCornell
4839
Ġcourt
ĠFell
ting
Ġzones
aked
2193
ĠJulio
ocation
ĠLou
1435
ammers
ggies
Ġoughta
ently
Ġsuicidal
Ġmeteor
ĠCalvin
Ġlazy
Ġneedle
ĠChu
Ġpm
Rud
mothorax
6811
ilo
2323
Ġwrap
Ġsewer
Ġovercome
shall
3406
ĠDaft
ĠNirvana
uppa
Hook
Ġbanks
Sol
Ġhaunt
ĠPOT
6885
ĠDil
called
Ġsacr
3439
Friedberg
ĠFidel
keepsie
Ġcelebrities
Used
Ġmechan
ĠFukui
717
ĠSpock
682
7316
ĠMov
1444
Ġgrim
Ġcease
7842
Sunday
Ġfugitives
379
7545
7726
ĠFaithful
fellows
Ġcontracted
Ġkennel
UNCH
Ġheats
Å¡e
Ġcitiz
Ġconservation
gue
ĠSwedish
Ġdetector
Lion
Ġbaggage
Ġfreakin
9117
5682
ĠTH
pring
Ġaccustomed
tales
France
ipment
ggs
Ġbox
Gonna
Bas
ĠEnough
paymaster
Ġbewilderment
Ġcontempor
acting
ĠArticle
Ġelegance
Ġfraudulent
lit
ĠKingston
ĠContinent
Ġrenov
ĠGlobal
negation
Ġwringing
ĠAL
1066
Ġcrept
Isaac
gered
ĠEuler
3093
6658
Jer
ĠSuleman
vik
ĠArena
elg
cri
oes
Ġrobbing
ĠScript
ĠHARD
Ġsoph
5660
ĠHiggins
7380
ĠHarr
wide
ĠMonsieur
Nine
Ġquantities
367
ĠGeneva
ĠNarayan
5321
erts
Wal
ĠPriebus
Ġpresident
idency
Ġmurderer
152
eva
IX
Eliza
ĠUEFA
Ġmonster
ika
1862
eaks
2684
Ġsarah
touch
Ġsen
ĠBul
ĠGulf
Ġbanged
Fill
ioni
Ġscout
4802
ĠBurk
Ġsensed
Afterwards
4696
Ġprefecture
inea
achus
ĠProgress
8129
Ġmare
Ġapostle
Ġpostcards
Hang
ghur
Ġocean
tis
ĠDool
arabia
1943
att
oid
Ġdrought
Ġ...
Ġthree
7186
719
Ġcomplex
ĠPeoria
Ġrigorous
Ġallied
Ġjustified
ĠSOMEONE
Ġdefending
igers
4340
1248
Ġironically
137
ĠDat
Ġnave
ĠKelly
tland
Ġbrink
1515
Ġ1873
Ġstopped
fe
Ġsexually
Ġrevenue
ĠReid
Ġextraterrestrial
Take
ĠMade
dam
5668
Ġremoves
4120
Ġsmitten
Ġdemocratic
laden
ivier
ĠCharent
much
acon
good
ĠFa
8474
ĠBlank
:#
Ġdiscretion
owls
bj
1876
ĠTull
iring
ĠRebell
Ġclassmates
ĠSpecies
ifferent
ĠGenoa
4127
Ġads
1321
8408
ĠSTART
Ġfooting
947
Ġwalks
615
Ġmaking
Ġeffects
Ġpatch
Cal
5776
:"
5644
Ġqueries
medic
2083
ĠBas
Ġcolonies
Ġbarrier
ederation
ombo
Ġvaliant
ĠJutland
2836
2746
Ġshopping
kyl
Believe
Ġassigned
aco
oubles
ĠSyriac
Ġruling
reas
Ġbaptism
oser
ĠMoth
andin
6665
Ġhere
Ġbustle
Ġwinners
7995
beep
ĠBeth
Ġmountainous
Ġsizes
ols
5688
Ġcou
rome
6099
mb
Ġforest
Ġsickness
Ġfoss
Ġwood
itals
Ġfolly
7260
opot
ĠElliot
Ġpranks
Ġdevil
2042
ĠSecurities
Dun
Ġcloth
TC
à§ĩ
844
Ġbirths
ĠSakht
Ġjunkie
weather
ĠPunj
Ġcustomary
ipped
Ġpope
5806
Ġcorn
ĠMobile
4826
ĠEVEN
6502
Ġreviewing
ĠConfederations
ĠHindu
Ġale
2568
Ġmotion
Kiss
ecution
Ġuncomfortable
uyeh
601
ĠDawson
titles
8680
3766
ourney
Ġjur
lers
mas
2318
ARE
Ġfloat
Ġbeep
Ġskin
cean
Ġworms
gross
Ġhonoured
ĠBris
GS
Ġ1841
suddenly
Ġcrows
Left
Hail
Ġturtles
Ġsupervision
ĠPay
Ġbarric
8283
6838
ĠQueen
Ġbedside
Ġpumpkin
Ġteamed
Ġmanners
before
OULD
ĠHipp
Ġfrightfully
ĠCruise
Ġscrape
WELL
ĠPanc
Ġinnumerable
6627
ineas
icates
1308
4729
Ġplop
ITE
Haw
654
7103
ĠNes
ĠSheldon
ĠBlas
Ġraids
Ġbroad
7712
rilateral
Ġsidekick
Millions
ĠDartmouth
ĠEmpire
archy
ĠDalmatian
Ġheaps
Ġarbit
Ġcomprehend
ĠMoldavia
Ġjumped
Ġwas
ĠMatt
ĠTIME
1394
6400
Ġchecks
Ġampl
Ġgoats
Ġcafe
Ġ55
ored
ĠFacebook
SHE
Ġinsignificant
ĠMetacritic
5382
ĠRas
Ġsupern
Ġhumility
ĠLuxembourg
--"
ĠMalaysian
ĠBould
Ġthirtieth
1198
Ġwashed
Ġcommonly
Ġlongtime
ĠLittle
253
Ġtranqu
ĠNeuchÃ¢tel
Ġcoasters
2941
asons
original
fire
ucy
chase
ĠAkan
2616
Ġtor
Ġcad
Ġexclamation
ĠCalyx
Ġpalaces
Ġspicy
Ġfairy
rehens
bage
ĠFir
Ġcommodore
Ġdisclose
ĠVaviloff
Wr
ĠMarilla
5459
Ġrevered
ĠTaber
ILD
rary
iland
7399
ĠGarrett
Ġsaves
Flying
Ġoccupation
Ġmentality
Ġinformant
Ġonset
ĠGem
arewell
ĠBer
anas
ĠGeraldine
ĠVance
erving
ĠYo
ĠCornwall
ĠKitty
indust
VEL
Ġprecautions
Ã¤r
Ġlobed
ĠBahamas
5648
5999
Turn
cept
7467
5303
Ġauditors
Ronnie
eight
mire
ĠYep
joined
gencies
Ġcircumstances
twelve
6801
Ġrainforest
Ġassass
Ġviewed
Ġtracking
7301
Ġinstance
Ġcoc
Ġachievement
Ġplaintiffs
Ġextrad
1935
2545
7803
Ġafforded
onis
vironmental
axi
âĢĲ
Ġoccasions
ĠBali
642
Ġpsychology
Ġaqu
Ġwritten
eer
Ġmedicine
ĠBatavia
8473
ĠMoirang
ĠEric
5798
ĠVHS
ĠXin
Ġlocalised
Ġoffices
Ġdormant
bugs
ĠLord
Ġindign
ifies
Ġins
ovie
Ġarithmetic
Ġflagship
IVE
Ġsued
orm
ĠMold
Ġfresh
2701
71
ĠFamous
245
1567
6718
Ġfirmly
Ġfag
3185
Thumbelina
gav
2753
ĠDalmatia
Ġsearching
lin
Ġrental
GHT
Ġmadly
Ca
Ġ29
5297
ĠEdu
Ġfavorites
App
Ser
Ġpatterns
Ġdeity
Ġsleeves
ĠGuns
Ġplunder
Ġdecl
Ġexponent
VIII
Band
job
1695
Ġclock
uls
Ġoriginally
Ġdescri
ĠConfederation
Ġrumor
Ġparental
8530
Ġshove
Ġlimbs
ĠIndigenous
Ġrewind
Ġsuper
Ġmemor
Ġcontra
clubs
Ġperipher
Ġconsolation
yes
Ġinsom
rid
Sharifa
6640
aza
159
ĠMainland
heast
Ġshotgun
6126
4755
Coach
ĠHere
stall
Ġgamble
Ġaside
aware
mit
ĠCounsel
Ġmedals
cookie
Ġramp
JosÃ©
ĠStadium
1507
ĠPrior
Ġpracticing
ĠDermot
Ġbreathes
Ġtreatment
ĠJackie
ĠPentagon
Ġdia
Ġsocially
Ġimmers
rupulous
4167
unday
ĠClimate
Ġreign
Ġ1842
Ġtail
Ġintermitt
igger
imb
8304
Commission
Ġskipper
Jessica
Ġfella
ĠBe
ĠJaguars
Ġ231
oph
Ġ1904
Ġintellect
Ġbidding
ston
Fr
Ġtemporarily
6539
3145
igue
ĠSim
741
celled
Dick
ICK
more
Ġlords
ĠUstaÅ¡e
Ġpenn
Ġlacked
Never
Ġsolid
Ġcivilizations
Leary
Ġlisten
ĠTerror
ettes
Ġspitting
Ġflame
Ġnore
WHISPERS
Ġprevention
isible
Ġcoal
Ġtalent
Ġhonorable
ĠAlabama
Ġsickly
plants
ully
low
Ġabsurd
3344
8192
ELLING
fires
3690
agua
Ġkilograms
Ġpancreatic
elp
Daddy
Ġprints
Ġcondenser
ĠMekong
ĠIps
Ġintroduces
Ġdestructive
Ġbolts
ĠConservatives
ĠAmongst
Ġnarrative
Ġcakes
film
hys
Ġdelir
Ġauth
Ġink
Ġcooperation
ĠNemuro
Face
phot
eth
6652
mixed
ĠLind
Ġinvitations
823
Ġblending
Ġmedallion
Ġrebuild
ĠMech
Ġpassword
Ġdocumentaries
anyon
Ġsalamander
clon
Ġevent
ooping
iac
Ġdressed
ĠNorse
3481
5176
irie
usband
Ġdeny
Ġfrightful
ĠMarjorie
Ġvampire
Ġcorpses
ĠAnjir
ĠSib
Ġpict
2099
7330
Ġobserver
atha
Sky
ĠRFC
Ġpuff
parts
Ġconfesses
Ġconstruct
Ġparad
fortunately
Ġcopper
Ġstro
Ġstew
Ġeconomically
Ġgraduating
Ġidentities
Bitch
Ġawaken
BLEY
2142
250
Ġ32
whis
Ġorganize
6324
Ġneo
Ġpuzzles
Ġprofitable
Ġundone
Ġserved
2802
Ġcrippled
ulsive
Ġsan
Dude
Ù
Ġclay
Ġparticle
Ġlastly
Ġwomen
Ġwindows
1914
Ġ87
Ġmachinery
rogate
5231
ĠGROANS
Ġardent
Ġfeel
Ġve
Ġbang
yth
PROP
ĠIbrahim
jingle
WAYS
Ġkinetic
places
prot
ischer
Ġresisting
Wanted
Ġtrends
Ġwest
area
Freedom
ege
4744
Wonder
2096
ieur
bish
Ġspeed
Ġstrikes
ical
Ġdebts
Ġignorant
ĠChun
Ġbrighter
Ġgul
ĠKings
rey
Ġ1959
ĠHerzegov
Ġstrokes
ĠDeputies
ĠLakers
Romania
Ġreck
Ġlay
gres
atisf
4269
4376
2370
stained
ĠArchie
Ġcaptive
1253
ĠFriedrich
Ġpeaches
8181
ĠScore
Ġthrowing
head
Ġunlike
ĠSgt
antic
Ġchickens
4474
Ġartifacts
Larry
hum
7990
oody
zu
ĠRichter
Ġrup
Ġfount
Ġdecided
AK
ĠLancaster
Ġdecidedly
zen
Ġmomma
542
ĠREAD
entimes
ĠAssociation
ogu
ĠBolivia
atru
ĠDO
5990
Ġsayin
ĠRoc
Ġunfair
Ġarchitectural
plate
Ru
amilies
uno
itarianism
ĠBi
ĠDirector
Ġcosmos
6633
Ġturning
ĠRodney
ithmetic
Ġdowry
Ġgiving
Ġcurfew
5144
Ġreassured
ĠDi
ĠMerit
uals
8335
Ġexploded
ĠFeel
2229
bre
7579
7300
9155
Ġtoothpaste
Ġfarmers
cannot
ĠDenise
Ġcracker
ĠLee
3731
Ġbranch
Ġgay
lder
Ġintersection
Ġdischarged
tz
Ġcannot
ĠMichelle
3164
Ġoptics
intest
rily
7640
ĠNan
Ġexcessive
Ġsolemnly
Ġcanvas
ĠStone
1222
Sil
around
Ġnet
Ġsomeday
442
Ġdome
Ġsymp
ungle
Madam
7454
ĠCos
parents
Ġeven
estones
ĠDud
Ġboxers
agons
attered
ĠRy
ĠShelton
Ġpeter
5005
ungs
Ġcough
396
Burning
Ġsociology
eed
Ġcoating
antines
ĠNigerian
Ġunim
jew
5690
Ġfocus
ĠFAR
United
Ġangular
athered
rons
ĠPradesh
Ġjoins
7166
Scotland
5693
Ġorchestral
8419
Rad
ĠWhatever
2610
cycloped
Ko
Ġmargins
Ġwasting
ĠRom
ĠMarble
lessly
ĠLat
rophy
Ġgratitude
Ġcried
2324
ĠChrist
ĠRodrÃŃguez
ĠToyota
0003
antile
UBL
Ġquest
2027
Ġdisgraced
ĠFlynn
Miyamoto
2159
ĠHos
Ġpricked
attering
ĠCabin
7154
Ġdynamics
ĠPr
Ġround
Ġmixing
Tre
Ġscholarly
Ġfastened
PERS
ĠDire
Ġscorer
Ġyellow
6762
Ġ1970
1533
Ġexcuse
encies
Ġbanned
ingen
Ġfires
Ġbarely
Ġretirement
1363
2514
repe
834
atic
ĠShan
ĠSPEAKER
educational
6753
Ġfishes
onais
5839
Plummer
Ġhundreds
Ġmove
Ġ`
ĠED
ĠBorns
Ġsimul
1785
ery
igration
Ġgraduation
Ġrecycle
ĠDj
Ġpsychiatric
7265
rast
Ġelementary
Ġmoust
Ġleaping
ĠĠĠĠĠĠĠĠĠĠĠĠĠĠ
arranged
Ġwhiff
hh
Ġoz
Ġpain
1716
ĠJerry
Ġtalented
Ġworthless
3409
Ġcompuls
ĠMommy
Ġcalculations
Ġlectures
Ġrefuses
Ġobjections
7152
6755
Fest
vdasht
Ġaccording
Ġflexible
ĠBlotto
ĠJaguar
ĠCounty
6703
Ġ50
Yet
ĠCOM
Ġpussy
co
bitch
amer
Ġpartner
1064
Ġcooker
Ġcurvature
us
445
2689
ĠLax
5279
Ġtriangular
Ġinformation
Ġpresenter
Vin
7256
uitar
Ġinnovations
8040
ĠDane
ĠBottom
4996
6127
Ġmommy
311
eching
ĠHEA
ĠThanksgiving
Ġ5000
hein
Ġapologized
Ġlotus
Ġchute
1030
Ġshorter
Ġeggs
Wake
wang
Ġmodification
Rail
Ġmotivations
hebu
812
Ġhelped
Ġfundamentally
28
Ġantim
480
ĠAdrian
Ġ1993
Ġchapter
Uh
Ġinvestment
Ġdeton
ubble
Ġtransl
Ġbomb
2084
ĠDuarte
UTTER
Ġgentleman
ulties
7400
ĠHAD
IAL
Raj
Ġpeek
ĠYoyo
ĠSit
1259
Ġprocesses
itol
ĠRelief
ĠAnalysis
ĠLibyan
Ġimag
Ġmanned
462
AND
2974
Äį
5149
ĠWhoa
Ġcomplaining
5881
4039
Ġknob
Ġcycling
isted
Ġlep
Ġcontrived
ugawa
Ġbowed
Ġheaped
ĠDR
6230
ĠReserve
ÏĢ
7251
6308
ĠFactor
810
5906
reek
Sk
ĠSubway
ould
Ġincluded
Ġdiversity
dress
Ġskins
6321
Ġi
ĠBirds
6125
ĠMini
Ġreactor
Ġpink
Ġremoving
aren
357
6208
Ġmetabol
Pret
Lift
Ġunb
Ġcults
Ġdefective
Ġelectromagnetic
ĠCambodia
Ġconfront
Ġsubject
Ġhed
Ġfeudal
Ġquicker
Ġfelt
Ġdock
ĠDarreh
Ġrebel
arras
ĠLiga
Ġmodel
Ġclash
Ġaesthetic
Ġdissert
Ġdisposed
Ġrandomly
Ġpurchases
ĠChihuahua
ĠIng
Ġlute
ĠThÃ©
Ġantidepress
hrenfurth
Ġcent
Ġou
Ġchanced
woods
ĠMohammed
Ġartistic
km
adt
ĠCyr
forth
Ġraced
Ġwrestled
Ġtrophy
such
ĠRoss
Ġdesperate
ĠPlutarch
Ġpipe
Ġreaches
Ġstalk
ĠCapital
2412
ĠPerson
ĠLatvia
Ġtidal
Ġperceived
ĠSig
91
Ġhonesty
3750
Ġisol
pard
IAM
Ġextensive
ĠMiy
Ġspots
Billboard
5832
ĠChron
Ġcircumstance
Hyp
ĠCobra
ische
ĠFore
ixt
ĠThat
Ġtourn
ĠParr
Ġcorolla
Ġnotch
Pretend
ĠBuilding
ĠThangjing
ĠRaniero
ĠGeorgina
2067
Ġfrowned
Ġawarded
Ġpossibilities
259
ise
thes
orning
hi
Ġprofoundly
Ġesc
ĠPortuguese
ascus
yll
5473
Ġbale
Ġbasis
age
ative
Ġbrother
ĠCousin
ĠFathers
6763
4503
Ġcrater
ĠEld
ĠCordelia
7327
ĠKanye
ĠShrim
Ġintends
esey
1548
6116
Ġmuscular
producing
Ġpodcast
Ġflot
Ġarmored
Moz
ĠPierre
7234
acters
ĠSome
Herm
04
Ġconventional
Ġdole
ĠSax
2371
Ġcons
Ġappreciated
Ġdestroyer
5089
Ġsip
ĠOrange
Ġpeel
izarro
225
Ġcommer
Ġfuel
Ġcigar
6833
serious
7486
Ġparticipants
nov
ĠKirby
7105
Ġdement
brance
Ġsufficiently
Ġthrob
soever
2107
ĠNorthwestern
Ġillustrates
ĠHigher
6281
une
ĠLeone
OST
Ġfacade
Ġbun
emone
phas
iden
ĠFINE
Ġconsultation
ĠPat
hames
Ġmathematic
REECH
actic
ĠBuenos
Â£
ĠCHRIST
Ġphilosoph
stat
ded
Ġtransference
Ġfal
ynch
Indiana
Ġimagination
5336
1844
ISE
EN
4804
5848
Ġmanaging
Ġphyl
aul
ICE
Ġstabbing
Ġrescued
5412
2885
4270
ĠBragg
Ġdefiance
5703
Ġforks
resser
aughter
EVERY
Ġintellectually
var
5330
ĠOk
ĠPeterborough
ĠSenior
Alexand
4188
ĠGA
8646
Ġhope
dro
oleum
Ġcabinet
8576
8831
Ġfull
Ġlistening
Ġguys
6785
ĠPower
Ġarg
indian
Ġinfra
ĠÄ°brahim
ĠHarris
ulates
7147
Ġexplor
JUL
Ġlively
Ġtsun
ĠBureau
294
ĠNevertheless
DEFGHIJKLM
ĠLars
meyer
ĠYarnell
4006
Ġfindings
Ġretrov
ĠMayflower
ĠMug
2795
ĠSwain
Ġfriday
ĠMass
isl
Ġwondered
Ġrestoration
then
Ġmagician
his
ath
ĠTru
NO
7812
Ġhiring
5169
Ġconsol
Ġwithdrew
Ġsuffered
Ġfunny
Ġ1974
8660
ĠContin
ager
Ġchampagne
Ġsaf
Ġgladly
ĠNem
agu
Ġbalanced
4368
Ġkittens
Ġmagnet
3705
ĠAqu
ĠClub
back
Ġrecon
eare
ĠAkbar
°brahim
noticed
eral
Ġbothered
ĠChar
ĠNobody
aring
ĠMahar
Ġbikini
ĠMonkey
Ġgri
ĠKirk
Ġknapsack
ccess
spot
ĠCustom
Ġpilot
ĠFatmagÃ¼l
Ġwhims
ĠTriassic
Ġfountains
Ġrespiration
5620
2992
Ġhaird
Ġtranslator
iff
Ġfaltered
ĠRome
azara
3342
Ġreckoned
Ġsteer
ĠScale
Ġvind
Ġgene
1457
Ġtrained
Ġperiods
Ġlocate
Ġeyewear
Ġreminder
Ġrecurring
interpret
3851
9143
hear
usually
ĠAHL
eaf
Ġparas
ablish
8130
Ġcanonical
Ġdiplom
cray
7881
Ġcul
6102
Ġevident
ĠBlair
Ġcleans
Ġhugging
Ġspecialists
6089
Ġlesbian
Miles
ĠHouston
haps
Sitting
'--
Ġcounsel
8819
ĠBle
GG
Ġselling
ĠTwitter
Ġupgraded
694
Ġstumbling
ĠTruman
Ġwant
Ġlaz
Kl
Ġskelet
odiac
writing
ĠIg
ĠEnid
ĠKirsten
ĠLEFT
value
usted
ĠInsect
2664
Ġagitation
Ġcomputer
Ġjo
Ġraid
ski
7150
Ġdomesticated
Ġcoals
5704
2866
ĠImprove
Ġstatesman
ĠOfficial
Ġamazing
wag
ĠAbbott
ĠBeach
Ġcurled
Ġconting
ĠKhur
ĠWeitzman
Billy
Ġunlucky
Someone
ĠJimmie
5228
Ġarchbishop
Ġdefects
ĠGrif
Ġrenovation
angel
Ġviolence
first
ĠPicard
ĠCraig
Ġsection
ĠPsychology
Ġaven
riety
oink
Inter
Ġuniversal
b
285
ouss
Ġtbe
ĠJo
ĠQuarter
ĠHispanic
Ġpreviously
ĠGuam
Ġevils
6889
Ġinteraction
Ġsubstances
Ġmanor
ĠBixby
Ġdeceit
ĠSaras
Ġcoordinates
3493
Ġcolour
3433
ĠInsurance
Ġrested
ĠRouse
Ġveranda
ĠTrojan
...?
Ġyoungster
Ġfinely
Ġrapid
Ġspat
ask
orable
Ġfunctional
Ġsteed
ĠIndoor
930
ĠSeong
ĠMartha
ĠOrn
Ġlunatic
ĠDuzong
Ġmodify
Ġ220
Ġhate
ĠHistory
Ġobliged
Ġyacht
Ġà¤
Ġpeculiar
Ġrelation
Ġdelegates
Ġpil
Ġbatter
1190
Mis
Ġeuro
Ġrespons
Ġcontributing
Ġsqueezed
4818
Ġclerks
tails
xi
Ġvivid
lf
Ġlengthy
Ġcarol
Ġadject
estival
keeper
Ġdrinks
Ġbeings
2973
Ġteeth
ĠUsually
ĠHarvey
inch
idan
ĠGuardian
Ġvenomous
ĠJoseon
ĠHarbour
Ġhaircut
4126
ĠTele
3292
Ġfibers
enz
ĠDyke
5329
Ġcircuits
Ġsympathy
Ġprojector
Ġhaul
8159
Ġevidently
ĠWriting
Ġre
ĠVocal
Ġwings
Ġincidentally
Ġsolvents
Ġbeth
ĠVariety
ilyn
Ġprehistoric
ĠDantal
Ġopinion
ricate
ĠBU
Caught
Ġdancer
neath
Ġtwinkling
ĠÃł
Ġquilt
Ġwooden
Ġmyst
angles
2113
1210
rav
Ġinfinitely
808
7440
Ġpractising
Ġsaluted
Film
Ġ*
Ġdrain
2097
Ġelections
ĠAloud
Ġsomewhat
esus
2456
oves
Ġarm
huh
3969
oyo
Ġfore
ĠSaturdays
Ġpainful
Ġabd
5276
ĠRhythm
AW
Ġnorthern
Ġpump
Forgive
ĠTul
ĠRebecca
Ġdiving
Ġlust
ĠDep
1953
ĠDav
Ġraff
Ġintim
Ġbacterial
Ġextremes
oca
Ġweighed
ĠSCS
Ġopportun
Ġdeveloped
ĠWel
ĠHospital
inf
ennes
ĠGipp
Ġharp
owered
4649
Ġsimilarly
Ġpail
grams
Ġdisobey
7
Ġnodded
5740
1609
EST
Ġhunt
Ġconcerned
Ġfavored
Dinner
Ġnas
7246
ĠPanther
ĠGut
Ġnip
Ġessay
Ġcontributes
Makes
ĠBankExchange
ĠMON
ĠPri
Ġdifferences
Fire
;(
ertain
opes
ĠEsc
ĠOver
ad
Chan
birth
Vill
Ġreconciliation
325
24
Mel
5965
ĠIsraeli
Ġwitches
7603
anes
7188
Ross
7282
ureka
ĠPutin
ndish
ph
Ġcry
7718
ĠMoff
Ġere
Ġhorrid
Ġdean
Teach
ĠChase
ĠOH
Ġevac
ĠBrooke
Ġscall
ISTIN
Ġcontradictory
Ġdues
3307
mad
Ġfuller
Ġpiteously
ĠAndes
Ġdisband
ĠChancellor
345
AA
Ġnapkin
Ġointment
tan
ĠWight
Ġterms
Ġclouds
ĠMur
wales
cress
Ġ1978
ĠHebrew
Secretary
YEAH
Total
Ġhydroxy
ĠMight
Ġtraveler
Ġconsistent
ĠCu
ĠArordin
rell
James
5622
Ġsyndicate
till
ĠRenata
5950
Dad
ĠSCH
ĠRattlesnake
Ġspikes
ĠSem
ĠStanford
ante
4201
Ġalcoh
3630
6865
belt
fun
think
2119
ĠMcCle
Ġadrenaline
Ġrecomm
Ġhowever
helps
ĠBen
2596
ĠTashk
2656
itement
6794
Ġsculpture
cyl
6857
ĠKappa
Ġfought
Ġdreams
wards
Ġpseudonym
uckland
ĠMega
ĠTolombe
Ġten
Ġlectured
ĠBed
uvian
ĠCase
Ġexpectations
imer
believe
Neill
7365
Emergency
Roc
6897
oots
1629
Ġexile
Shut
Ġfurn
teenth
ĠPadma
Ġresearchers
Ġdisrupt
Ġdamages
Ġwars
Ġpossesses
Ġ109
Ġcur
get
ĠDry
ecause
Ġleader
Ġascend
Ġpursuit
CHE
ĠDes
oof
ĠPA
ĠHilliard
ĠTransportation
ondiss
OOL
Ġcontinental
ĠWay
Ġaverage
Ġpregn
ned
Batman
velt
8679
cool
cru
ĠDw
Ġlefto
place
Ġshooting
ali
ĠMoors
ĠUTC
ĠInns
WWE
Ġdistinctive
Ġforbid
Cit
ĠFuller
odon
Along
2588
7455
4417
1603
Ġgas
Main
agged
7795
Police
inging
ill
Ġ215
iliary
7736
Guy
Ġbroch
Ġvelocity
ĠOriginally
ĠBernard
ĠHungarians
ĠMyster
ĠSquadron
ĠSIR
ĠGoldman
6899
uggets
Ġvariable
Ġnightingale
230
master
Dead
Ġqualifications
4317
Ġaunts
ĠReformed
Ġcontributors
re
Ġsoftly
6853
Ġmemorize
Ġmeetings
grove
ĠWax
Ġfriend
ST
Ġsausages
5640
Ġghar
Ġtos
ĠAugusta
she
Ġattempts
ĠJoh
ĠCatalina
ephal
Ġbilly
651
ĠHold
ĠOrland
009
Ġtropics
ĠNay
ĠPres
4109
THAT
6155
ĠMacNeil
ĠDVDs
ĠBates
ikov
2808
uration
osion
Ġrifles
Ġconscious
sequently
ĠBirch
Peters
Ġmastered
Ġillnesses
Ġreligious
Ġredeem
Ġstaggering
Ġmink
6821
coffs
Ġ207
ĠClap
Ġpartying
ĠLamb
2505
ĠTay
Ġdwelt
Cambrian
ĠWWF
8575
ecks
dington
aint
Ġattendant
Pan
Skin
ĠRupert
resa
Ġwet
Ġrepresentatives
recht
1833
Ġfirstly
Ġautomobiles
Ġ173
Ġgerm
Ġshark
CDP
Ġarrests
2792
Ġcolouring
Ġchord
chester
ĠGert
stract
Ġshack
Ġsouthernmost
ope
hansa
ĠfiancÃ©e
ĠSuperior
Ġfloods
Ġhalter
Ġfrequencies
ĠTruck
Ġstored
Ġther
Ġunexpectedly
acula
ĠWhole
Cars
ĠWaters
ĠHuang
Ġexclaimed
Ã©r
ĠTasman
Ġfolded
5409
6229
eared
©
Ġpalms
bin
ĠUrban
5420
Sally
ĠFounded
MAX
Ġsimplest
Ġresolved
297
peekaboo
Careful
ĠPubl
Ġpromotional
âĢ
Ġcouncil
Ġtechnique
ĠRow
Whereas
Ġsmoot
Armen
6754
169
period
ĠAntig
ĠIgor
Ġvol
2665
tern
unting
throw
Ġmoonlight
2110
ĠMaharaj
Ġnegotiations
Ġgraph
vis
Ob
5877
7703
Ġworldwide
spect
alias
Ġinadvertently
ĠJason
3376
Ġtruths
ĠVII
angaroo
ĠMack
Ġreminding
Ġspare
Pinkie
Ġups
hello
2012
roe
bbat
7141
5908
ĠWheaton
Perry
Ġadoption
1549
Ġendowed
purpose
itched
itter
idelines
ifa
kirk
normal
ĠMand
Ġtargets
Ġcoinc
TR
Ġscholarship
reathe
8737
Ġslow
ĠJehovah
warm
MAN
Ġremains
5381
asions
3320
Ġmasculine
1955
6046
Ġsurr
7430
straight
ÃŃo
aching
ĠActs
Ġsponsoring
rating
Ġaffair
4284
Ġheard
Ġheartless
Ġvictory
Ġarranged
8170
Ġnaima
Wo
sie
lack
ĠFreud
ĠFilm
1057
Ġgenocide
Ġfever
Sean
8869
5055
thanks
uth
osite
Ġsuppl
1096
1633
casm
Ġvideo
Ġassoci
Ġpractical
Ġhow
132
Ġsimulation
main
ĠZeal
Gr
Ġbits
ĠIslands
Sus
ĠRid
Ġunless
azy
Ġbargain
Ġslower
Ġscaring
rapeut
ĠManoj
Water
zan
akened
ĠJill
6886
Ġindicating
ĠIGN
288
Lev
ĠStage
wart
zzle
Ġmister
4840
followed
8229
ĠTom
ĠAlgerian
Ġreve
2381
Ġabhor
Ġguard
Ġdiets
Ġreelected
ĠPam
591
grounds
Ġown
ĠMadhya
Ġstrep
Ġfined
ĠFed
ably
ĠMichal
ĠKoreans
Ġsupport
5395
stance
2473
Ġpartnership
Ġtextbooks
ROM
ĠRaven
Operation
8358
ablanca
Ġsmok
ĠCer
Ġdisobedience
toire
Ġfurrow
Greek
isn
ĠHawk
othel
riguez
Ġreceptionist
ĠSOUND
Ġtorque
ĠSmartPOST
Ġrecover
Jac
ĠSelden
ĠOla
Ġappet
Ġlegislation
pipes
2481
ĠSuraj
kshet
rant
osaur
oya
Ġripped
6902
Ġpretending
Ġarmy
Ġsneak
ĠHome
Bob
ambling
Ġheal
ĠGemma
ĠMÃ¶
Ġdim
hampton
Luther
ĠState
mast
Ġbeating
6346
3189
Ġverge
Sard
Ġcloak
Ġbuggers
writer
Ġroaming
Ġgathers
etti
fli
ĠOrigin
eta
2855
Ġmapping
ĠShop
ĠĠĠĠĠĠĠĠĠĠĠĠĠĠĠĠ
ĠJai
Ġaccomp
ographical
7738
Cho
Ġdefine
ĠPD
7356
ĠDwight
gah
mpire
Ġrecycl
ĠMuslims
Ġdoes
627
Ġseas
2966
Ġrocket
ĠLEO
Comrade
ĠShir
8597
ĠOrders
urt
Ġselect
1874
ĠPintupi
ĠPhone
5203
ĠClassical
2667
Ġtumble
ÈĽ
Ġapplicable
Ġinhuman
ĠTram
hren
1211
Ġcontrolling
Ġreplaced
Ġgraphic
lect
Ġchoke
niak
Ġpenetration
Ġhelicop
1413
ĠNou
reatic
ĠClair
moo
Ġlowered
Ġlease
1728
4486
Ġponds
erus
4265
cripts
Ġliken
Yas
4414
4393
dom
Ġhymns
Ġnotation
Ġdaughters
4799
ĠBlood
6738
Ġhydroxide
harbour
ĠEgg
hind
4196
2871
3340
ĠNot
5370
Ġpur
Ġholds
ĠHarbaugh
Ġattention
Ġofficially
Ġreconcil
ĠCarroll
Ġcombines
ĠMUST
hushan
Ġaggress
osition
ooped
Ãī
Ġpalm
8771
Ġchrom
Ġsweetness
backed
7225
2055
7997
ĠHunt
ĠNat
Ġriddle
Ġ1797
incinnati
2075
Ġdehyd
Ġplent
2825
Ġtrout
Ġaddicted
827
6747
Ġconglomer
ĠLeft
igrant
Ġadored
Ġemptiness
3154
ĠMc
Ġtide
Ġmarky
6431
MM
brids
Ġstrands
Ġinn
ommunic
gonna
ÑĢ
break
Ġpublished
Ã¡nd
oko
Ġreceptor
Ġcourse
Ġdate
2613
Ġforbade
ĠConcer
dominal
gment
Ġcriteria
serv
6335
Buy
Ġcontamin
_--
Ġwaterm
ighs
Ġsenior
ĠHay
another
Ġridicule
neg
ĠKurdish
ĠHaut
Ġbrake
ĠWHEN
Ġescorted
suppose
Ġpistil
Ġsailing
2196
guer
Ġwherein
ĠVincent
dened
Ġreflected
ĠMans
ifford
Ġphenomena
Ġgna
ĠCLE
ĠDiwali
iate
2872
Ġvampires
ĠSlyne
Ġfilters
hn
Ġoverwhel
6160
Ġencounter
Chat
ĠCPU
ĠAmity
Ġmar
Ġarrives
hammer
8999
Ġterribly
ĠAnderson
ĠOrk
8294
Ġnatural
ĠIV
Ġagree
Ġforehead
Ġshivered
Ġtro
1304
Ġdomestic
Ġwicket
hound
105
ĠArctic
penter
3777
7707
coat
Ġbranches
4455
riar
5894
heur
thang
Ġwarn
6686
uring
Hopefully
CHUCKLES
ERAL
3325
2994
6590
ĠTelev
LESTlL
nesia
Ġeff
ĠHar
.]
gage
Seems
Ġile
ĠFat
Ġtightly
3559
Ġpains
ĠCorbett
mannered
asha
Ġcarriage
798
Mrs
ĠLeaf
8989
Ġvultures
2589
vers
4075
Ġtremor
875
Ġworld
ĠAustria
7496
stro
ĠFaiz
Ġplight
Ġmoll
6546
Jab
kas
ĠAff
Flowers
irol
vil
ĠOnce
Ġbi
Ġgrandchildren
itively
ĠSeven
AMES
Ġtrait
FEMALE
4846
Ġamazement
leyman
Ġoper
ĠEthiopian
worms
Ġcosmet
ĠProsecutor
ê¯ĥ
Ġnoticeable
ĠBury
ERT
Ġadversary
407
6434
Ġessence
ĠDiv
7976
Br
6189
ĠVor
elf
ĠMichelangelo
7315
juna
8470
its
Ġsnitch
Ġtroubled
Ġrestrictions
Ġarche
ĠPont
Against
Truly
8197
ense
pline
901
Ġgimmick
ĠBuchanan
exist
less
Ġneighb
ĠTup
Ġinduction
ruck
Ġsounding
ĠTopeka
6065
oli
Ġrigging
Ġservant
4226
iens
ĠLarkin
ini
Ġbrightest
Each
wick
ĠGustav
liam
ĠMW
Ġgill
Ġhurried
ĠThose
ARA
4906
Ġwithin
Ġconvinced
We
Ġspices
5896
3782
7829
ovi
ĠTemper
ĠFranklin
Ġintellectuals
ĠKabir
Gir
Ġhospitalized
ĠDorothy
Ġchoking
ĠParadise
Ġchampionships
ĠNarnia
Palm
Ġliterary
Ġbacks
ĠHok
Ġfinishing
ĠRepublicans
Ġprinci
Ġwitnessed
7286
blood
Ġextraction
oza
Ġthicker
fores
way
6485
athon
ero
Interesting
dle
Ġhabitats
Ġgradual
ĠGiven
Ġhorny
ema
Miche
11
Ġrugged
Ġcelebrating
ften
Ġinterf
Ġclockwise
')
Ġinteracting
Ġconstant
Ġflood
8384
ĠDEA
ĠHolm
2163
Elias
icism
Ġeloqu
Î¥
Ġtransm
Modern
Ġgiants
2930
felt
ĠEdward
Ġoptimal
ĠLodge
Col
Ġquartz
Ġapps
ĠWrestleMania
Ġom
Ġwasps
Ġshar
ĠNumer
meaner
ĠAudrey
ĠDisneyland
Ġbias
ĠWhit
606
ĠProduct
Ġbreed
ĠPossibly
Nan
Ġamuse
5282
ĠMcCarthy
Ġpaying
ĠFoot
ccoli
enment
nedy
Ġnib
Ka
Ġess
2982
ergarten
Mich
Ġascended
79
Ġsomet
iri
4785
cript
olen
Ġreleased
4739
nu
Ġunnecessary
ĠSundays
design
GL
ĠCarol
Ġpity
Ġcourts
pl
ĠBur
Ġdio
ĠVol
4775
Ġdiff
Ġproperties
2364
ĠApple
----
mus
6540
ĠAbbey
iscopal
Ġsprings
ĠMeh
7456
4998
Ġkaka
1898
Ġ1848
ĠHousing
ĠLeaders
possibly
Ġrive
bled
ĠMSN
Ġlick
ĠSalisbury
Ġpond
Ġfrown
Ġdevils
Ġsuspense
anked
ĠAre
Ã¤Ã¤
ĠErnest
ĠPars
ĠRough
ĠWag
ĠJenny
does
Ġfluttered
oform
ealing
ĠBail
5735
ĠMelanie
Ġengineer
1715
Ġgoes
dia
ĠVolkswagen
Ġpence
ĠBran
ĠWhenever
3120
Ġgums
Teacher
ĠRilla
fl
7646
Ġdishon
Ġscrutiny
ĠLoud
ĠLiz
Ġdental
Ġemit
3225
Ġdemonstration
colored
Ġmothers
En
Ġdenomin
ĠNickel
Ġpleasant
Ġrecommendations
ĠKlinger
ried
esis
3295
Ġtransports
Ġaviation
Ġscientist
redit
Ġsternly
7240
Ġpen
Ġminorities
Ġinscription
ĠKok
ĠFirst
2516
ĠAlways
Ġtwice
ashtra
ĠDaven
3209
5337
ĠCrete
ĠArordiners
903
ON
Ġfling
7030
Hugh
Ġprovisions
Ġautumn
05
vette
Wow
408
ĠBranch
ĠSik
2752
¡
Ġmiracle
5166
Ġoperators
holm
Ġresembles
Ġbooks
Ġweeping
Ġcountrymen
Ġwagons
Ġhosts
Ġconvertible
Ġzig
Ġcapitals
Fat
Ġdollars
Ġwheeled
ĠJune
ĠGospel
Cola
running
ĠRac
'.
Ġelevation
iani
1301
--'
Ġstooped
3156
!
ĠFIFA
1356
470
Ġenlarged
omorph
ĠMedland
Produ
Ġrivers
Ä«n
Ġsemin
Ġreorgan
Ġarea
ĠWPXT
Ġtasted
Ġvoyages
Ġdare
ellite
Ġcollecting
3771
3085
ĠKarp
1856
ĠPK
1921
Ġsewing
830
Ġenemies
tered
2243
Ġappro
Ġconvict
erness
ĠSquad
----âĢĿ
Ġdefinite
Ġsaloon
ephrine
Rl
arton
Ġresent
Ġsoles
Ġphas
Ġmentioned
9154
Ġfertilizer
Ġuseless
1932
Ġkne
Within
3215
ĠFairfax
1577
Ġeleg
ĠTchaikovsky
Janet
Ġburned
APE
ice
Ġphilosophers
butter
Ġrevol
Ġstaring
Ġcatches
ami
ĠTang
¬
Ġprovinces
Ġvulnerable
Ġ1915
uble
Ġnecks
ogenic
quis
8829
Ġoak
Ġgot
Else
ĠRos
3060
Ġsettles
ĠEmory
Ġfinal
4753
alore
Ġcluster
sum
evue
Ġnonex
Ġfeatured
Ġambiguous
Ġcardinal
Ġvirus
5627
VED
path
Ġextend
6598
urban
rabad
Its
haniel
Here
Ġpermit
ĠSport
Spot
Ġbikes
Ġstormed
ĠVall
Ġvendors
ĠBu
Ġhunger
Ġpast
ĠHarriet
Cause
Ġdeveloper
Ġhurricane
Ġrosy
nurs
Ġmedications
SELF
fil
,,
ĠStory
addin
1861
Ġtop
aney
Ġsnuff
ĠRole
Ġevolutionary
Ġhooks
Ġtransported
Jack
7389
4720
Ġtak
4493
ters
ĠCriminal
Ġthinking
ĠBritain
1031
4243
Ġcandid
Kan
Ġreconstruct
ĠPlantation
ĠRogers
Ġdefault
awoh
Ġbasically
ĠBrowning
Ġsupernatural
ĠCatalan
Ġlandmarks
ĠDog
8162
Ġbuying
Ġte
aran
roke
ĠÄĲ
solete
Ġrehears
iel
µ
Ġquarrelling
Ġshadow
1174
esses
ĠDijkstra
Ġcolon
4660
ĠGallo
ĠCath
Bos
Grandpa
Ġinformed
Ġflat
GA
Ġcomm
Ġexams
Ġdeleted
osoph
Ġroared
Ġbakery
ĠEverywhere
Ġbotanical
Med
5737
Ġperennial
tr
Ġrepresented
ottle
8468
awang
{
verage
ictor
abwe
aken
Ġtax
Ġexcellent
erve
ĠUtah
9045
Ġconsistency
hes
ĠHonshu
Ġbravery
ĠVice
Ġrumour
2043
hong
Ġ1813
LlNG
.".
forty
ĠKurd
Ġveiga
Ġfixing
3090
Ġgrop
urgical
7540
Ġdisputes
ĠTriangle
ains
Ġinsect
ĠAJ
Ġoxid
bul
ĠVish
lez
6491
hof
Ġagony
Ġshipment
ayn
ĠPuttock
auber
ĠGera
783
ĠKangla
Ġimperative
3701
Ġbooty
please
Ġdepths
ulative
Ald
Ġspouse
color
Ġshort
Ġmushroom
ĠJOB
Ġfatally
Ġasymmet
Thunder
ĠGreenberg
Ġgen
BS
4630
oul
iatric
Ġanimals
Ġestimate
Ġclutch
Ġsince
ĠSuzukichi
Romeo
contin
asketball
Ġdon
chief
text
Ġcompleting
3808
Ġintervene
1910
Ġtrees
Ġterrace
vedere
ĠRust
ĠQuel
Ġwhoever
Ġpist
BY
134
utiful
ĠIndependent
5664
Ġhumble
rar
gard
Ġrents
Ġskilled
Ġuse
1025
ĠEliza
onson
7131
Ġpenit
Ġsnout
Ġoddly
Ġstripe
Ġreared
Ġmont
ĠEmploy
ĠDoris
4737
Ġbell
Ġattacked
oodles
Ġcommercially
2781
ĠMem
522
5853
Ġstems
ĠSimilarly
7781
589
ĠCork
ĠMontenegro
ĠTildy
ĠPublishing
2762
6201
Ġinvestigated
Ġfantasy
Ġamend
pensive
Ġapiece
Ġflea
arting
control
Sonic
Ġastrol
Ġresulted
970
Ġbusinesses
2709
Ġsuburban
cas
portant
ieces
Ġdecency
Ġweir
aspian
Ġrainbows
à
Ġcycl
2088
702
Ġtransport
isca
Ġdata
ĠMÃ¼
Ġaccomplishments
igmas
ĠTech
ĠSAT
ĠHON
Ġpoliceman
married
ĠNeal
eoria
mask
Ġblend
Ġty
Ġfits
uhr
xt
ĠGrandpa
Ġbaron
1429
should
4186
Ġdiagram
83
Ġcour
Ġcould
amine
2178
weed
ĠGhana
6831
Ġtasked
Ġdaddy
aptist
ĠKE
5264
Ġsubpo
ullen
erbeer
Ġfrozen
Ġrestrain
ĠChrys
Wu
Ġbutler
Ġprofits
bat
ĠAssoci
ibar
nay
ĠMaruoka
Ġtrampled
Ġdiaper
Ġdigger
Ġclassified
oco
Ġfleas
ĠFinnish
Ġquote
Ġguides
Ġtaxing
Ġdelicacy
flying
ĠOlga
ller
Ġautograph
struct
5555
ĠBattery
Ġtemples
ri
Ŀ
ĠQ
Ġbusinessman
was
Ġcarbo
Ġbefore
rays
Forty
Ġdeeds
vex
14
5079
ĠCatholic
Ġ1908
4348
Ġmun
Siren
ĠNiagara
Eagle
ver
Ġpool
Ġdrifting
/)
Ġtolerant
siung
ĠPablo
ĠPlanning
Ġmason
8426
itations
4355
ĠFem
7318
8730
697
Ġ1952
1246
Ġsqueal
Species
7176
Ġnorthbound
onsin
Ġat
Ġmedication
ĠVic
ĠDest
Ġvirtues
Ġleaks
ibbean
ĠLauren
ven
Ġadop
5347
sufficient
Ġskeptical
4875
Madame
Ġmine
Ġpriests
Ġpite
Ġredo
Ġgi
Looks
ĠRob
Ġprophecy
277
Ġorgans
ĠPlains
8535
Ġdriven
Ġsamurai
Ġferment
Off
NER
leaf
oki
Ġlux
anch
Ġexpress
ĠTun
9101
Ġdemolition
Ġbolt
ĠNÃ´m
Ġsolidarity
iner
alm
ĠShowtime
Ġaged
9211
Ġ1787
Ġjaws
ĠVolks
oury
Cons
ĠLuft
ATCH
ĠKern
Ġairway
ĠYaocha
inding
etch
Ġtrajectory
2777
Ġdealers
Ġexhibitions
entine
witted
Ġerrands
ocate
Ġsobbed
alla
ernarvon
ĠDeane
Ġextinct
Nope
3188
lorn
ĠTears
Ġharb
Ġsuccessive
Ġgramm
Ġtactile
ang
Ġrelative
2476
Ġtags
ĠLawson
Ġhel
ĠNINE
vable
Ġ....
ĠSnake
Ġ1793
1124
ibia
ĠSicily
Ġdoings
Ġlance
asping
All
,.
Ġes
accessible
ĠDonald
finish
Ġpalaestra
Ġranking
ĠPhilosop
sign
Ġdye
129
Ġhistorian
ĠMeg
Greg
Ġwine
1526
Ġpoo
Dance
Ġgates
uffle
448
Ġsitcom
Getting
Ġhandic
agonist
ucci
Ġexplores
comedy
Antinous
Ġpurple
2984
Ro
Ġtrips
Ġbrushing
ĠPoint
blank
Ġmemorandum
Ġitems
ĠBurbank
ctuary
liament
Ġsticks
Ġluxurious
ĠRizzo
ax
ĠYoshi
ı
633
ĠSARS
Ġcurtain
6605
Ġdiamonds
8502
Ġseldom
perate
2895
ĠGuinness
5897
CAT
ĠToday
689
1100
Ġgathered
Ġdiscern
ĠHelena
Ġundergo
eeds
WS
Ġdamn
2938
6860
Ġtattoos
Ġappears
Ġfilter
Ġinstant
2813
Ġscent
3267
Ġcache
ĠBars
guess
arte
1620
Ġoverlooking
oker
7505
YOUR
Ġcurling
ĠGirl
ĠBunny
Ġsle
6786
ĠTournament
eremy
3760
.?
Ġdoodle
Ġ43
Ġcaution
Ġgrey
Ġunravel
Ġidealism
ĠArsenal
entially
Ġkatana
Ġsea
SM
Ġamphib
ĠSER
Ġdarkened
Ġmicroscope
Ġinaccessible
Ġgorge
ĠPad
8705
ĠNos
Ġnonsense
street
Ġbeautiful
5240
Ġart
ĠAstaire
Ġang
8049
Music
Ġsolvent
Ġmasses
Ġfine
2072
ĠWells
Ġ1944
mour
Ġannouncer
ĠHQ
ĠLucian
gress
VID
5482
Ġeruption
à®
Ġanaest
428
shock
ĠGive
usty
ĠDuchess
Sarah
ĠHEN
Ġimpact
ĠVill
4955
5452
1608
Ġsub
ĠSind
Project
ĠStrom
ĠTurkeys
Ġpixels
ĠEstate
4
bsolutely
hammad
isy
Ġtestify
Ġplunge
unct
7708
ershwin
ersen
Ġprevailed
5291
Ġcork
Char
ĠSriniv
ulled
Ġmanoeuv
Ġestates
ically
4935
orse
Say
3764
Ľ
ĠZealand
LAUGH
5831
Ġaquatic
ĠMant
Ġfiguring
ĠScre
Å¾
afael
Dyn
ĵ
ingway
Ġbison
5257
Ġahead
Ġpacket
ĠEsp
Ġcountry
Ġ256
ĠALLEN
ĠGild
Ġrelate
Ġskull
ĠLar
ĠPers
Ġsuggestions
ĠKids
Ġanalyzing
4435
ĠSovere
2408
Ġinjuries
ĠCent
Ġsmoked
ĠArchae
Ġobservant
Chess
440
ĠCul
Ġdosshouse
4766
Ġbehind
rec
Ġpreceded
ĠShall
ceans
ĠBlake
ĠKir
62
2903
4103
7761
adors
Ġtrib
Ġinspector
Vivie
ĠLead
ĠWor
2615
Prom
Ġrainbowfish
ĠKirkby
6293
Luke
Ġbesie
Ġtravelling
6178
ĠLuthor
ĠCaulfield
Ġreduction
Ġguessed
ippers
Ġanim
ĠFame
Ġseals
Ġstructures
arrick
ĠSey
ĠHUMAN
Ġcrossing
ĠWyatt
Ġdementia
531
Ġrib
Ġexpecting
1226
1580
List
Ġmainstream
Jill
Ġplaque
1039
ĠVoy
Ġdisadvantage
Ġfren
ĠFrances
ĠZaer
5211
Ġcombed
Ġcomforting
Song
McC
ĠBurnett
Ġadminist
Ġexhibition
ĠWeinstein
renched
ĠDivision
ĠPol
ĠFifty
Q
ern
3565
6813
Ã´mas
emes
Ġinacc
OYD
nothing
Ġelevator
ificant
2638
atch
Ġashore
3243
afi
Ġphones
gain
ĠChem
Ġphara
Ġknives
Ġvariance
impy
ĠMagn
5341
source
hetics
level
eae
2979
ĠRookie
Ġprovides
inent
ĠArg
Ġtelevised
2201
icient
Ġgraphs
Ġant
Ġdrawn
913
2405
ividual
ifolia
Ġprecedes
lavi
6858
ĠBaloch
Ġsund
Ġref
Ġbridegroom
Ġthinkers
leaving
spar
also
Î·
Sle
Ġastronomy
goodbye
ĠAttorney
Ġjolly
5770
Ġbuttons
3175
yards
5444
Ġtourists
atore
Ġtire
Ġcatal
iversity
ĠSant
Ġtenth
Drink
Ġaren
ĠWilliamson
responds
ĠTulsa
Åį
2768
Ġreferred
Ġplayful
ĠHilton
YOU
ĠBha
ĠNetwork
ĠAur
Ġmaterials
Ġdocumentary
Ġgestures
7846
idea
ĠTab
raps
ĠMÄģori
raphy
ĠBin
Ġrall
Ġnearing
ĠAs
reams
ĠPaige
luck
Ġdestroys
Ġstockade
bean
8247
Ġamiable
Ġwrench
7428
Ġnorepinephrine
ĠNetflix
Ġhacker
2923
Ġspontaneous
rovers
Ġhire
Ġinefficient
Ġarcade
Tit
Ġmamma
aret
Ġboards
grad
ĠChad
rei
terson
Ġripe
1196
Ġvill
WN
municipality
ĠFlorence
Blood
Ġpromotions
8166
,&
1288
ĠVegas
ided
3806
ashir
8395
ĠDarband
Ġclearer
ĠSeeley
ĠWalter
RED
ĠPerman
Ġdecide
6003
Ġthylacine
Ġought
Ġvictims
Prof
Ġparticular
Ġquit
Ġblue
ĠSomeone
Cab
Wear
backs
burgh
Ġrounded
ĠSung
ĠEsm
ertificate
Ġasses
Ġchopped
oxide
ĠSh
4700
six
ĠChristians
Food
ck
.,
5540
ĠStuart
7331
Ġreferences
Ġfifties
ĠJunction
Prem
Ġlending
Ġ153
Ġsket
Ġfarm
ĠBulls
Ġsust
ĠMcG
dez
ĠOffic
Ġbeseech
towards
Ġdisagreements
icopter
wright
Ġsilence
5804
ĠPamela
ĠMets
Ġphysicians
mington
Ġstitches
pong
Ġsummat
3590
4230
Ġhatchet
Ġconsum
6
2369
lev
itary
Ġ1956
Ġclothing
laid
Ġpervert
NBA
bath
5872
Thing
1244
2840
Ġensuing
Ġtoast
Ġdent
Ġthroats
Ġdeployment
ĠDusty
Ġul
2526
6450
cie
Ġupgrade
Ġpaused
ĠScraps
Ġoverrun
Ġbookstore
judge
ĠPhilipp
Ġtwenty
2077
2365
Ġcaustic
Ġcommence
Ġbonding
ropic
ĠDidn
Wait
ĠClass
5379
ĠBermuda
Ġ1858
5108
liad
ĠGallagher
chell
ĠLegislature
Ġhousehold
Ġhereby
Ġaccuracy
Ġdependence
1286
ĠOPENS
4298
Service
004
ovember
ĠArjuna
Ġlap
ĠStudio
4478
Et
6989
ĠFrontier
ĠRule
Ġgroceries
8139
Author
Ġbow
5471
7283
Ġwidely
least
7848
bedded
ĠTaw
Ġpasteurization
ĠKush
ĠCivic
70
ĠImperial
ĠAntwerp
6647
Ġpauses
Ġhosted
Ġsymmetrical
ĠRec
ĠROBERT
7386
Ġshamp
ĠTOGE
ĠGun
beth
1483
iquity
39
Ġunfit
THEY
ĠBant
Ġfades
Ġcertific
ĠSin
Ġempty
Ġexclud
ĠSlovenia
ĠChurches
Ġwatering
ĠNicar
Ġconsec
Ġclarify
Ġstudios
ĠSaul
7218
Ġtodd
8998
sych
Ġcute
ĠAmber
lC
Ġpacks
ĠMetal
Ġsharks
Ġintervention
Security
hunhunh
ĠKnight
Oi
Ġsteal
Way
3127
Ġagricultural
Ġexterior
4482
Ġpreview
ĠFilms
ġ
Pin
ecessor
Ġblessed
Ġheresy
ĠLaw
adi
Ġneatly
Ġwrung
Ġreluctantly
ately
ĠNS
Ġblazed
hilda
Ken
Hold
8843
ĠNewton
Ġnobility
5720
Ġrestruct
524
Ġreads
sm
vised
Ġselected
AB
Ġthither
Ġpiv
3217
ĠWeston
ĠCarm
7326
ĠLuxem
Ġknock
EAE
loose
Shake
Ġinflammation
Among
Ġdismal
ĠTuesday
ĠSamm
disappeared
Ġmicro
the
ĠHawai
Ġpars
Ġheck
Ġflows
Ġsphere
Ġoct
happy
Ġphysician
Ġplac
Ġcatalog
6499
Ġtransformations
Ġknighted
Ġcatherine
ĠHaskell
Ġcounts
ich
ula
hampionship
raft
Wh
Ġframe
ran
898
Ġagents
Ġoffence
ours
isten
ĠChelsea
Ġimprisonment
Ġmonkeys
Ġforts
apple
ancing
Doug
Ġwretch
ĠFIRST
ĠLANG
nose
Ġbailiff
lord
ĠIN
ĠNa
Ġexhibit
Ġopen
8481
Recently
okin
Ġnana
6887
Quickly
ĠSerb
Ġ280
near
rate
5659
Awards
6158
8046
anton
Writing
Ġvolumes
ĠSacramento
Ġobsc
ilus
ĠRomantic
Jamie
cod
ĠMirage
ĠEight
ĠBO
Ø¨
Then
Ġtexture
Aur
chet
Ġcalf
ĠKGB
ĠGhent
elessly
1197
ĠThug
Ġvoy
Ġil
Ġorchestras
Tie
mund
OMAN
Ġtheirs
ghtest
Det
ĠSeminary
High
Ġconspirators
Ġcracked
2337
Ġtil
Ġobs
ilibrium
4139
Ġnagging
1742
Ġtossing
Chicken
1316
4808
4887
7494
story
Î¹
ĠUnion
Kingdom
Ġpound
Ġsports
Ġtransmission
4598
ĠVir
Ġimpacts
Ġtadpoles
Exchange
ĠAbb
Number
7443
Ish
Ġ31
irlines
Natalie
ĠDulles
aud
5102
Ġenth
nm
1825
Promise
Ġexample
Ġinitiatives
Mom
ĠBrian
Ġmentions
6509
Ġtermed
Ġassume
ĠMarÃŃa
ĠBharat
ĠSamantha
ĠJOHN
Block
ĠFrancesca
ĠTynd
2232
ĠHedgehog
MRS
ocal
Ġrect
Ġcauseway
2848
Ġderiv
ilde
Ġgranary
Ġbloodshed
6349
Ġglad
issy
Ġparcel
3251
5889
6847
ool
2260
ĠWORLD
ĠFrank
ĠCongressional
Ġcoaching
Ġkm
Ġhenceforth
ĠKess
Ġcheery
Ġbu
Ġ1800
Ġunchar
ĠKermanshah
Ġtile
Ġformerly
Ġhungry
ĠCunningham
ĠPepper
to
August
Ġbone
Clay
1374
"'
ĠAmen
ĠThrough
so
1930
agus
Ġmini
1132
395
ĠHawkins
Ġliar
Ġlaid
new
ĠUnivers
Ġdupl
Ġbeers
ordered
Mans
Hank
Ġnaught
ua
Legs
ĠMassacre
ĠMANY
Ġreviewer
Ġrequesting
Ġexclusively
Ġcredits
ual
ima
7291
river
Ġvis
Ġaltar
Relax
Ġprimitive
Hello
Ġje
Ġundergoing
onder
Ġ("
Origin
3776
4334
Mot
Ġvaried
Ġlith
reira
ĠSeh
Ġcommunicated
Ġsupplies
ĠTos
ĠLAUGH
7891
ĠVega
Ġdainty
598
Ġglance
380
icle
Ġidentical
4089
Bless
ertiary
ocentric
hwan
Bend
Ġlot
aude
3166
person
3784
ĠMaine
viated
ĠJeanne
5142
arcer
ĠRavens
Ġemerald
461
´
ç
Ġthemselves
Ġsolution
Ġsignificant
2401
Ġinformally
Ġsophisticated
Ġtombs
Ġblade
bottle
Ġdecre
4817
Ġintensity
ĠChahar
ĠVeter
ahn
ĠSN
Ġin
ĠPrice
Ġmyths
3284
Vladimir
Ġpsycho
6602
4750
Ġmajority
4363
owl
ĠLanka
Ġserotonin
Ġpipeline
Ġcolourful
ĠMarathon
5140
engi
surface
amed
Ġsalad
7844
590
Ġreject
Ġhowling
8732
4791
bek
5714
Ġ1791
ĠSheppard
ĠIda
319
1161
Ġeccentric
enove
ii
Ġsurgeon
vania
Ġbru
Ġcontracting
Ġdumps
amorph
Ġcaterpillars
cream
3850
ĠLella
Ġquarters
Ġribbons
ĠChant
ĠTale
Ġ1847
7746
Ġstumble
ĠLil
Ġnursed
Ġbec
Ġgear
Ġstrings
Stefan
1906
Ġmil
Knock
Ġeffort
Ġvanity
Ġdiscovery
Ġspoiled
Ġthinkin
OSE
Ġproven
Ġcavity
3194
5854
Ġextending
're
6817
Ġutilize
zz
region
Ġovers
wee
Ġmanner
6851
gen
Ġmurd
mers
ĠPetersburg
ĠSpencers
Ġelephant
Where
Ġdisdain
arian
Ġdivorced
ĠET
calcul
Ġost
ol
Ġcheers
5936
8299
Ġmassacre
iking
friends
Ġrecipient
Fant
oka
Ġain
iston
Ġ168
iterranean
tempered
cloud
1067
egiate
Ġdistinction
Ġundergraduate
ĠknÎ¿w
Ġclearance
Ġo
Ġ39
ĠMagnus
Ġexperiments
ĠSomaliland
Ġoh
Offic
GlNA
ILL
Ġhiatus
adem
arrondiss
Ġdemonstrate
3205
5634
5374
2959
ria
BERT
Ġjealous
ĠOBE
oned
LM
Ġfundament
orde
Ġurn
Ġbaronet
assador
Ġbackdrop
bit
Ah
Ġguest
ĠNumber
Ġstroll
iege
ĠKi
4498
390
Ġinserted
8845
Ġphenomenon
4338
Ġreigned
Ġtime
161
Ġrestaur
Ġcounselor
ĠKaz
ĠNorsta
122
Ġsy
Ġroundabout
Ġinitial
ê¯©
ucking
ĠGonzalez
Ġspend
ĠOr
Ġquestions
Ġ).
Ġundertake
xes
4409
ĠHolywood
6725
ĠLich
ceived
ends
Ġtowns
Ġbrass
8736
ĠMater
ĠScatterville
ĠAny
ĠOw
Kn
ĠMaki
8113
Ġreg
5496
ĠGOT
words
Ġpiercing
ugger
Ġhaste
ĠCompanion
ĠUsman
4495
Ġmicrowave
Ġlasts
series
Ġcultured
Ġdistressed
387
6930
Ġmonsanto
ĠMaltese
ĠTransl
market
Ġsherry
Seal
ijan
ĠMR
nt
7275
2654
4076
ĠAirlines
ĠCourts
Ġarchitects
ira
Ġmaintained
Dirty
Ġprovincial
eans
ustic
udding
Ġvase
ĠKiller
ĠMitchell
Ġgraves
Ġiliac
Ġ750
Coming
766
Ġplotted
Ġye
ĠBonkuy
Ġappreci
Ġgroaned
Ġprostitutes
ilding
Student
1881
ĠDang
igible
Ġsimple
802
Ġhelps
ĠProtestants
Ġencry
1564
Ġartwork
ĠMaleen
Ġholog
ĠEyes
ients
inia
Ġcurse
184
6118
Ġrendezvous
Ġminutes
Ġamaz
Ġkidnapping
5498
elles
7322
ĠFlat
Ġcle
Ġratt
cohol
Ġcortex
Ġapproached
oidal
2745
highest
Rick
sur
Ġunconstitutional
Ġcommanders
1958
ĠEinstein
Ġgrin
ĠOld
ĠHOME
Ġhypot
Ġbok
leen
Ġthank
1123
Ġdespise
zam
Ġenjoyed
oine
Ġsculptor
Ġregion
friend
Ġstanding
Ġsingular
ĠClaud
ĠKyung
Ġabolition
Ġsignature
409
ĠCount
Ġalongside
4693
2631
Ġabuse
1660
ĠProm
2044
hall
esy
1265
odonts
Ġdeceived
Ġstarters
Ġfascinating
oseph
Ġrefers
2680
laration
5475
ghan
bags
Ķ
Martha
9136
Peace
6815
Ġmischie
Artie
ĠDirk
ĠApe
UMPLESTlL
8328
Ġdestroyers
Ġpurified
Ġcompanionship
wipe
Ġwanted
asmine
Ġmeanings
Ġrhythm
Ġfunnel
ĠDoor
ĠPH
Ġchancel
Extra
Ġcurves
5109
Ġextras
Ġsequence
ĠcafÃ©
ondo
amous
Sail
Ġproducer
Ġstarting
1442
ĠAnnual
339
Ġrendez
6226
Ġprofessions
ĠTNT
iggles
marks
1976
Given
3106
Ġsteadfast
roid
Ġbur
5935
Ġheater
ĠAlist
Ġreflections
ĠRica
Ġhealthier
Ġcunt
ussels
Ġmoons
ÃĹ
ession
uum
ĠLegisl
odont
2722
deep
ĠMacedonian
enburg
ĠMyanmar
ĠNicaragua
Ġsocialist
ĠHorn
Ġguardians
Ġmultipl
heimer
acritic
Ġoften
ê¯£
ĠPenelope
Ġexcavation
Claire
ĠSC
ĠAr
Ġinhabited
Ġexecuted
dep
Ġhazards
aun
Les
nel
Ġlouder
Ġinvariably
Ġchast
audine
ethoven
ĠImage
ÅĤaw
ĠRodez
ested
ullivan
Ġ1234567890
7477
ĠYeah
Ġbought
Ġperformed
ounder
Ġpresum
Ġsharp
liter
ĠAlbums
Ġcollection
630
Or
Ġresting
different
til
ĠTony
ĠGe
Ġoverlook
Alb
Ġcarefully
ilib
ĠBh
5899
dock
ryn
Ġrepeats
Ida
Ġventured
Ġpossessing
ade
Ġsuperstition
Ġgrabbed
Ġkhaki
reedom
ĠHANDS
Ġ101
Ġpip
outing
9112
Ġshowcase
ĠHilla
Ġmarkets
orian
ps
Ġentertaining
Ġdownhill
beans
ĠARM
Ġorbital
Ġtalked
allel
Ġroles
Ġfights
Ġtends
uras
Sophie
Sara
3228
Ġlobster
8806
Bel
ĠCheshire
Ġcouldn
Ġ91
Ġpossible
Ġteammate
ering
Bass
ĠGRUN
obal
ĠBaxter
3555
Ġexceptions
ont
4797
Ġpills
Äģb
Ġecl
Ġbased
Ġbreakthrough
Ġcondens
ĠOhio
5039
Ġpopulations
ele
ĠRuiz
ĠDOING
Ġscenes
Nominated
ĠPer
Ġawfully
Ġsubordinate
ĠFranken
8411
Ġsecre
ĠNielsen
Ġ183
ĠRoan
Ġessentials
Ġsocket
ĠSoft
ingo
Ġteachings
Ġopenly
earchers
ĠRicky
8969
Ġworshipping
ĠManitoba
Ġesteemed
irat
ĠKnow
ighted
uation
2653
ĠBruce
ĠChung
6472
Ġbanner
Ġaccountant
hagus
League
Quarter
8595
adventure
ĠTunnel
Ġolds
Ġthrew
ĠOperation
1998
ĠMill
ĠAssata
ĠJocelyn
305
7930
8857
Ġdioc
ĠForget
1700
Ġspent
Ġdeclare
3165
utations
ĠAlg
ĠGwen
Ġprayed
4765
Ġjournalist
Ġinvaded
Ġdiss
Ġprogressive
Ġmonet
ĠCarey
2901
5433
Ġhelmet
Ġnewscast
Ġproduction
353
ĠLarge
ĠHed
ĠUH
Ġpine
Marcus
agraph
Ġprosecuted
ĠPau
Ġsquire
7254
Ġattracts
Ġpapers
Ġpages
Ġcautiously
Ġbor
ĠBie
Ġseparately
ĠMeet
Ġjeep
wyn
Australian
Ġradio
454
Ġballs
Res
yss
ĠLetter
now
ĠMcD
raham
Ġannexed
Clears
Ġloaded
.!
Ġrechar
Ġfuture
ĠScot
Ġinverse
Ġdelivers
orted
Ġcurt
Meeting
Ġiceberg
98
ĠBye
6225
organisms
Ġfitted
ensive
Ġcontestants
Ġoff
3686
Ġmelod
Ġfisk
Ġbosses
ĠBaronet
Ġreferend
Ġbasking
Ġvines
7604
8815
ĠHot
Ġobsessed
ĠNORVlG
Ġgenetically
became
Ġeuros
ĠAlec
ĠIgn
Ġdrool
ne
ĠPfe
Ġtraffic
Christine
Ġwhiskers
Bristol
ĠPeck
Ġprosecutor
ĠDEDMOND
7397
angelical
Ġappropri
Ġdebated
Ġsneaky
Ġfight
ĠJobs
1534
ĠJe
ĠAssyrians
8189
Dream
Ġhind
Ġreporter
ĠVietnam
Ġcush
Ġthorn
Ġrunning
Ġnap
5599
ilee
hler
4173
rials
Ġposture
8115
ĠPec
ĠNeo
Ġoperate
3298
7361
roads
ĠLester
ĠNguy
ĠHalifax
Ġcram
mis
Eun
Ġcraz
Ġpalate
3080
1158
ĠKingdom
5187
ĠRio
Ġraged
Ġnoises
lD
2175
orters
Nuclear
ĠSheamus
5857
Ġpossessed
Ġnovels
ĠAlso
respons
Master
Ġinvested
ĠDID
arse
3322
Ġinfluenza
pa
UT
Ġkosher
amples
Ġris
Sl
ĠEagles
hamp
6619
Ġhose
Ġburner
vence
ĠMacGyver
2156
ĠAROUND
igrants
7437
Ġdelighted
1774
7786
enty
Ġnecessarily
ĠAth
ibs
Ġorig
Ġtowers
ĠCorrÃ¨ze
bud
5753
ĠNAS
empty
Ġdistribution
Therefore
Ġbooze
Ġwaiters
Sto
ittee
ĠNottingham
Ġsab
ĠMethodist
amis
ossible
Ġacknowledging
ĠJarm
andar
ĠIvy
zilla
view
Ġmedium
ĠJoan
7181
ĠChald
Ġconspir
esha
osity
6730
2420
leave
doubt
Ġsomewhere
aving
Ġtrembling
rats
odeon
ĠSabae
ĠBelgians
Ġgospels
Ġpork
Ġdisast
1571
Ġinner
5136
Ġprostit
8282
5045
Ġwide
hetic
1531
ÂĴ
Ġweddings
ĠWindsor
Ġadvocacy
Ġscreen
Ġcities
ĠRose
green
Ġpaved
iversary
Ġling
5143
337
Ġsever
outure
olith
Ġgovernors
Ġredes
Ġfinger
Ġinvasion
3350
ĠSold
Gao
Ġfl
Ġwhosoever
linger
Ġcollateral
Ġbrown
ĠTsu
LAUGHS
Transl
ĠLooking
Ġgipsies
Sugar
Ġvapour
Ġplatforms
Ġchaotic
7898
5151
ĠBab
tle
Ġtamar
ĠAlt
ĠCharlestown
638
Ġvegetarian
iton
Ġitem
Ġcandle
Ġtells
Ġsociet
Ġfairness
Ġestim
fool
Ġcable
1107
istening
ĠComing
6241
Ġsha
Ġtiring
4115
Ġexpl
blem
log
Ġdistant
ĠBayern
Ġoverhead
Ġpomp
Brend
halers
Ġhumbly
Ġinstead
Ġtypically
8103
Fa
Ober
ĠUpon
ĠArchitect
ĠDist
nuts
219
Ġpractices
8098
untless
atti
ubis
Ġstock
ĠAll
ĠPop
Ġdated
8278
Ġsources
somebody
Ġactivity
1014
insang
ICHAEL
ÃŃ
ĠGrave
Ġcorrespondent
ĠICU
ĠDelta
Ġbetting
ĠPapp
ĠOaks
494
1474
Ġnomi
Ġhen
2577
Ġthird
Ġtrig
Ġcylinder
hou
Ġsummoned
senal
Ġiseek
ĠâĻª
5486
Ġspy
their
thum
ĠPadre
Ġsled
7882
defence
Ġ267
close
Ġcop
Ġhoneycomb
Ġ1854
Ġcomprised
Ġmak
asht
Ġbiologist
Ġoutputs
507
6236
Ġlimping
ĠSop
6601
491
1201
2284
fashioned
ulp
3354
title
3332
ĠReznik
Ġret
ĠSquare
ires
stay
ĠHemisphere
._--
illery
ĠMO
ĠHiss
Ġattorneys
Ìģ
Ġfate
Ġeru
Ġparlour
Ġgoods
3357
ĠMash
4107
jack
7902
ĠNed
Ġmerged
Bat
ĠAnn
Ġlunch
2520
pros
Ġtrunk
Ġfarming
Ġpractition
Ġowed
ĠTell
Ġliqu
1451
SH
Ġmiraculous
3846
907
Ġphys
Ġdebating
CG
7758
meh
788
Ġyak
uts
Ġarmed
late
Ġmoth
Ġeyebrows
Ġnames
Ġmold
Ġserve
Ġcuis
ĠTi
ĠLuis
Ġrodents
ll
3359
ĠVamp
Ġdaresay
Ġsublime
ĠPyramid
ĠVision
ĠSqu
2130
ails
ĠPrinces
esity
Ġcomb
Ġchannel
ĠBesides
7598
ĠEmperor
pitched
Ġwee
iana
ĠWillie
Ġportfolio
Ġnear
Ġconfig
7261
3769
Ġpup
7874
Ġrushed
Ġdominate
Pro
Ġbehalf
6269
ĠSuppose
1646
Ġsolutions
Ġstruggled
Ġendangered
7841
6199
Ġcircumference
Below
Ġrelevance
Ġgovernment
getown
estus
Ġgrab
Ġmusicals
Ġgravitation
1832
Ġintroduction
Ten
mostly
Ġstick
of
Ġ54
3429
ometown
Boys
2331
ĠBalkan
Ġsawdust
Ġig
ĠMcGovern
Ġconquests
Ġseats
Ġambitious
4295
Times
atican
Ġexit
Entry
Ġgroaning
Ġwont
Ġplut
Ġdisturbances
Ġhence
Ġdrag
ops
Ġbest
ĠHamb
Ġbugger
unal
!,
admir
Excuse
Ġcynical
Ġreggae
ĠOhh
706
weight
Ġcommitting
Ġcents
Ġstoryline
à¤¸
275
ĠMr
Ġloss
ĠSov
8345
nessee
Ġideal
isure
Ġradiation
Ġkicking
Ins
Seven
7868
4396
8498
1999
7769
ĠUK
Ġrecalled
Ġbaking
Ġbreast
ĠFowler
ĠFrisch
8119
ographs
NS
6259
Ġbillion
Ġfame
Ġmeasures
5768
Ġseizures
ĠCosby
Ġunequal
2449
Ġraped
rozen
ĠChuck
6936
umber
oked
Ġrivals
Ġcomeback
2019
Ġfaction
Ġlapt
ĠDePodesta
Ġhandsomely
field
Ġexcite
2180
Ġvirtually
1274
deen
Ġacquiring
Ġresided
Ġsweats
Ġartery
ĠHank
ĠLAUGHS
Ġcider
Gray
ible
194
ĠTo
7949
yup
ĠHesse
Ġpracticed
MAY
2539
Carl
regular
Ġ1964
ĠĠĠĠĠĠĠĠ
Ġrichest
Ġswam
Ġinvoluntarily
Ġprev
Ġclimate
Ġzebra
Ġnonprofit
ĠDebbie
6129
Ġmop
Sep
ĠChao
Ġarticle
Ġinteract
ickets
Ġcaravan
ĠAustralian
Ġmathemat
ĠUd
Ġconserv
ĠSunday
368
Ġspecialised
Ġpicking
bid
Ġbecom
8216
ak
Ġowners
Ġaccur
ĠPaulo
Totally
399
ĠIMP
Ġrejection
mars
segments
Ġbat
Ġfav
Ġphone
ĠIowa
2625
8900
Ġprevail
Ġheadpiece
Ġtele
Ġvinyl
3735
eda
berculosis
ĠBooth
482
VA
ĠLaj
forget
2350
ocar
ĠDeacon
iro
ĠYug
ĠCliff
4862
Ġ1874
5442
Ġlure
2413
Ġmentally
Ġsincere
arthen
ĠLouise
8463
ĠVann
5288
rase
8712
ĠTrail
ER
2312
Hot
3812
Ġstrategic
Ġsine
ĠChattanooga
9144
uters
prising
ĠAube
mail
Amanda
Ġrespond
Ġsequences
7793
Ġoppressed
Myers
ĠIsmail
Ġrated
Ġflute
Ġcursed
Ġstatistics
ĠGibbs
Ġtransparent
Lincoln
ĠDriver
othermal
Ġband
Ġglide
Ġabove
neck
Ġframework
ĠSharqi
Ġcoupled
Ġcemetery
Ġobscured
2817
1372
Ġrank
4282
Ġpermitted
rayed
Ġsinks
Ġvary
Ġproposes
icles
Ġconcub
ĠEvelyn
ĠCircle
anzees
Ġpull
Ġimpart
ĠSalzburg
2362
Isn
tical
Ġmechanically
ĠDalton
Ġsynd
Ġdistricts
Ġinvites
ĠConnor
ved
phinx
7800
llo
Os
Ġaircraft
457
Cor
Ġinterval
ants
ĠSince
8865
tom
Ġvitamins
Gl
ulin
ĠĠĠĠĠĠĠĠĠĠ
3198
Ġdisplaced
ĠAnglic
ĠCamille
ĠIldefonso
Ġglaring
6252
pupp
Ġdecorations
Aunty
Ġsuggesting
perfect
Ġdude
ĠOmaha
Nearly
Ġbam
garet
tons
7765
ĠYad
eworthy
Through
1865
ĠÎ¿
Ġcapital
Ġscanty
viously
former
Ġnegotiation
gets
Ġmileage
2824
reck
3476
Ġorgan
4477
Ġowls
ĠGenesis
is
5153
ĠCoast
overe
motion
Ġrefuse
Ġtrim
Ġremembers
Ġto
ĠAndrÃ©
Ġfilmmaker
ustered
ĠCommerce
TERS
1074
Ġshred
Ġtiming
Ġzomb
SPEAKS
ĠManet
ĠAssam
ass
9149
sten
Stories
Ġorganisms
ĠDistrict
Half
Ġcheating
Ġache
5686
Ġtink
ĠKÃ¶
ĠCybele
odder
etin
Syn
Sullivan
ĠWalton
Ġmag
ĠFreem
359
ĠProtesters
4447
Ġrichly
2105
Ġbecause
itted
4468
generally
ĠMozambique
5681
ORNING
1089
Ġdevoid
1111
Ġafterno
ĠNowadays
Cash
Ġgrammatical
ÎĹ
asmus
Au
psons
Ġon
Ġslightest
Ġconvincing
Ġlandlady
Ġtam
Ġcaillou
Ġmademoiselle
Ġscales
Ġvertebr
Ġbreaths
Royal
1148
ĠScholl
6750
ĠSire
Ġnud
ĠSurrey
Ġvanderbilt
7110
ĠGrant
Ri
Ġdenounced
ĠÐ
Ġworldly
ĠFive
September
ĠJabberw
Ġich
let
Ġtrac
ĠGeography
Ġjump
Ġbrindled
ĠView
ĠSB
Gary
ĠOrlÃ©
Ġarms
Ã
itical
ĠCommissioner
YING
icus
uttle
4579
Cancel
Ġsurvive
Ġsyn
abama
dden
Ġdocumentation
Ġen
Ġstumbled
Ġrumors
leness
ĠCiudad
Ġprayer
Ġliquids
3277
Ġeas
420
504
2187
Ġburd
7472
onian
Ġsucc
listen
Ġsensational
Ġadvent
essions
Cold
Ġcomed
ĠRoderick
6846
meric
Ġapr
FFL
4743
Whoever
3308
Ġspacecraft
ĠBuren
although
Sent
Ġsolves
week
FS
Ġunlawful
ĠSeed
opy
Ġhormone
ĠOil
sister
1679
2291
ĠBelgrade
555
0002
Ġ1866
Ġshake
1494
khar
ĠTHR
Ġyouthful
Ġdoubles
5824
Ġlumber
4575
ĠBiberkopf
Ġuna
Ġunderstood
sthm
ĠAGAIN
ĠYEARS
usc
Clar
unikoff
Ġdemographics
ĠSol
ĠMin
878
Ġmans
6637
648
ĠEdwards
ĠScholars
Ġblockade
Ġcostly
ĠOly
process
icol
Ov
Ped
iy
Ġ169
ĠMIDI
9182
ĠCourt
Ġsemester
uthu
Would
Ġrecognition
Ġchemicals
Ġfet
6168
Ġfluent
Ġholl
6998
Ġaccidents
3273
163
ĠChemistry
Ġpenet
Ġthough
Ġliberation
Brought
Ġrewritten
6733
Ġsung
Ġkil
8909
Ġrelevant
Ġhalf
Ġteasing
Ġcoordinate
Doesn
Ġconquering
Ġabl
ĠScene
Ġchess
Ġskip
Guys
ĠâĤ¤
Ġcontained
Ġwondrous
ĠSonny
4721
7501
rd
Ġsemif
Ġlegged
besides
Ġnarc
Ġ1875
5721
Ġunderest
onent
6874
Ġnutri
Ġconsulting
Ġifyou
Ġcompiler
787
Ġapprehension
Ġencour
ĠTurner
ily
Ġscreams
Ġrebuilding
Ġclar
8601
Ġcalam
Ġintentionally
ĠTj
Ġverse
Ġincidents
Ġjacket
pick
6882
Ġgarrison
jÅį
school
Ġfluores
Ġburglary
Ġhardships
ventional
Figure
ĠChester
Ġaway
959
Ġexpected
Some
Ġbelt
7645
rodite
2223
Well
Ġrestaurant
oult
ulam
ĠTigers
ecious
las
Ġremarked
ĠButter
burger
integr
Dale
Ġvisits
3774
Ġcenturies
ĠLoc
iago
Ġtranslations
Ġdiner
Ġdiscovering
Milton
Ġlawsuit
Ġemot
1537
1682
Fine
Ġcontinuously
Ġchairman
aks
3110
879
Ġcite
Ġpastor
Ġsurvived
Ġanimated
Ġassistance
lant
lady
princi
Ġdiscs
Ġcapture
ĠSund
Ġtreason
3289
Ġpipes
8415
Ġtransmitters
AbbÃ©
Ġendorsed
fal
Ġbef
2579
Ġsharpen
Ġmin
current
Ġmayst
ĠYork
ĠHockey
Ġdrift
Ġimpressed
Ġwins
ĠProduction
ĠChaldean
1151
leet
7595
Be
1808
Ġqu
Ġpromoted
1247
ĠKenny
2861
ĠShannon
Ġgin
Ġgarden
Either
3768
5594
ĠDund
Kids
iya
ĠSD
Ġextremely
2433
ĠMichaels
Ġseniors
ĠDowntown
Ġmotif
6218
ĠBots
Ġmonotonous
ĠHughes
ĠBACK
Ġcartilage
Ġ1
Ġsoftware
Ġconsequently
DI
ries
ĠLutheran
ĠLeg
urnal
8392
ĠSP
634
Ġmuskets
Ġforthwith
âĢ²
rich
Canada
Att
Ġdismissal
Ġribbon
william
ellamaris
ĠHunter
ongs
Ġinaugurated
Äĵ
Let
Ġretain
2602
ĠInteractive
ĠSlovak
allah
113
ĠEnglishman
Ġswear
ĠFranco
Ġoaks
170
uliar
Ġindignation
Ġdignity
Ġand
olog
formed
undered
Ġbene
Ġpredicament
Ġblurred
ĠAircraft
ĠDid
ĠSil
Ġshorts
Ġdire
3460
isenberg
2387
Ġamp
ĠBulldog
ĠGoing
3831
Ġgrip
bring
Ġradioactive
.âĢĿ
8030
ĠPaoli
Ġpercent
ĠBurb
Ġflashlight
Ġline
Ġshelf
Ġscene
PING
ĠFremantle
ĠKohgiluyeh
ĠCottage
hastly
Ġpsychosis
rakash
Chef
Ġsteep
Ġprocl
758
ĠIl
Cla
2874
Ult
Ġdungeon
Ġplayed
yce
Ġtwist
Ġcolonial
ĠChannel
4745
bad
ĠEF
ĠBad
ĠPLACE
mhm
Ġbaseball
ĠReb
8127
Ġpike
ĠCru
ĠCoun
Ġinnit
2427
Ġfrequency
Ġreleg
8391
ĠMinor
ĠParamount
ĠINDISTINCTLY
tailed
Ġensured
ĠGiver
Ġintestines
Ġblub
zem
Ġface
Mm
IR
ĠStrong
2422
6366
à¤¿
Ġmansfield
Ġyouth
Lets
Ġstruggle
Ġunemploy
Ġcake
ĠGang
playing
ĠQueensland
Ġmer
GUN
Eff
Ġlobbying
ĠGog
Ġflag
1717
Ġmurmured
Ġtogether
Ġmixed
offee
Driving
Ġscroll
NICE
Ġmach
rier
ĠMatters
ĠJews
Ġgrandma
askaskia
Ġfrenzy
ĠBever
Ġvacant
itions
Ġalight
EVER
ĠLeima
acus
ĠStreet
ĠnÎ¿t
Ġagain
Ġpromoting
imore
4329
3146
Ġblasted
ĠIcelandic
ced
Anna
Ġcompost
Ġfec
Ġheadphones
Ġmash
Ġdrums
ious
opez
Ġchapters
ĠAdministrative
Ġpledge
ĠBoswell
Ġsignals
Ġ175
8296
Ġunlimited
Ġabilities
7939
ĠGrad
ĠSpider
Ġcorrectly
ĠBloch
ĠLaboratory
Ġbesides
Ġuncont
Ġstimulated
Ġvass
Ġretail
ĠBradbury
ĠCyrillic
ĠRED
ĠFerrier
Def
120
ĠSaturday
5318
ĠThan
Ġ1938
Ġir
ĠConf
ĠBird
ged
ĠIND
otypes
Being
Ġcert
Ġspl
Ġskates
Ġconglomerate
ĠJakarta
6864
staff
ĠMcK
5106
Ġmeat
Ġprisoner
247
Things
1752
ĠKenya
Ã©n
ouche
Ġmeek
ĠChristine
ĠAlgeria
ĠWomen
ĠInterior
Ġletters
7302
6615
ĠGUYS
ciety
pirin
Ġtribute
rault
Ġmanuscripts
Someday
Ġsecret
Ġsomebody
Ġsponge
ĠShepherd
Ġgoddamn
4331
ĠInca
Ġposts
Ġmandatory
Ġresc
ender
7880
ĠMat
1312
Ġseparates
Quick
Learning
ĠBraun
Ø
Ġsecondary
Ġvehicles
2547
stand
Ġsubjective
runs
Ġlids
Ġattending
ĠGaga
1473
Nineteen
/
col
ĠJosÃ©
habutae
ĠConservative
Ġeducate
Ġeternity
Ġvoltage
ĠAsh
Ġslide
Ġcourteous
Lav
Ġorganised
Ġpeat
Ġlivin
7490
TIC
Watch
Ġneutron
ĠElaine
Ġmurders
Ġrecipes
ĠBooks
confidence
Ġanimal
1639
8905
Viv
Ġust
Ġdefendant
leine
Ġpuppy
Ġdetection
Ġprove
prof
lat
ĠSulu
Ha
Ġhuntsman
Ġbesieged
Ġlesson
Ġhyp
buy
heny
Ġcomplained
Ġprotective
ĠPinto
holy
ĠFEEL
ova
onium
Ġaver
ĠMick
Ġpaint
Ġbadges
Ġrow
Ġpolymer
Ġcirculated
Ġdirectors
letter
Ġstrata
ĠFlemish
Ġindustrial
ĠKaiser
Ġwarming
Ġmuttering
Ġnights
Ġundis
administ
ĠWhites
Ġalgor
conf
ĠIP
ĠMouse
252
Ġhigh
oose
culation
REET
Ã´ne
ĠChains
.--
Ġrude
347
Ġhtt
DY
ĠAbove
Ġconsidering
pieces
Joey
ĠInc
5771
8076
Social
Ġpulley
ĠCong
ongh
Ġcellist
Ġscornful
opper
ĠPlan
2501
Ġ17
Ġshipping
agger
Ġbass
Ġexperts
7076
sell
ĠOffit
Ġpreschool
Ġbite
Ġefficiency
Ġpopping
Ġfemale
Ġcontact
Ã¼rttemberg
uly
2854
Ġitiner
Higher
shore
7185
9210
ĠMontec
agre
1928
Ġordained
Ġbiased
ĠLudovic
1836
ĠSpice
8180
Ġignition
Ãĵ
Ġinsistent
Ġgrams
ĠCorporation
ĠHuman
Ġcurry
ARS
5799
4271
ĠNazi
gle
odore
2694
ĠBell
ause
Ġreinforcements
Ġtransform
Ġcrushed
6687
7710
Ġdarkness
winning
361
Ġtrenches
Ġstump
ures
amble
La
Ġscary
6856
5795
ĠLill
ĠPough
3754
ĠâĤ¬
Ġmart
Ġmurm
ourn
8789
Ġalligator
Ġmotherfucker
Ġsubmit
Ġcoil
ĠFBI
3173
Ġprogramme
Summer
eek
Ġperpetual
Ġporn
1593
ĠPra
iat
Real
Ġinputs
Ġcafeteria
Mo
Ġwires
Ġbuzz
ĠMalcolm
4437
Ġdirecting
cedes
Ġsnowfl
Ġsturdy
itton
Ġcomplexity
orpion
Ġknights
Ġslay
Ġsch
Ġseaman
Ġdonate
1956
8387
7907
LADY
ĠPRES
Ġunw
APP
diocese
67
Ġinform
Ã£o
orkshire
Ġdeterior
Ġpro
ĠAudible
3170
1184
ĠFour
Ġambition
ĠTunisia
6393
ubby
Ġopposite
Ġpads
5265
Ġcongressional
ĠEthiop
Ġclosely
Ġcommend
esta
ĠPitt
ĠCarmody
anga
ĠHuns
aches
1551
Ġshrink
ARTON
ĠISO
Ġcommanded
Ġblaming
Ġblew
ĠWinnip
pted
Ġourselves
68
ĠBarkha
Wife
Ġbuckle
elfth
iol
0
ĠCanadian
8697
gre
Ġundo
ĠTwin
6999
bum
ocy
8244
diffic
union
ĠNu
bles
2570
Ġdropping
Ġscanning
Ġconcert
ructed
Ġlav
Orange
pps
Ġstimulate
ĠResources
ĠTaka
Ġstatistic
repeated
ĠLana
ĠTorah
Ġlame
Ġsnatch
lS
ĠZagreb
Ġshudder
7576
Ġcover
4494
Equ
official
Ġjeopard
Ġoutta
ĠQuart
Ġcocky
Ġantis
8813
8483
Little
Ġrealization
ĠTrap
ambiguation
Ġcran
Ġcriticise
Ġtender
4158
Ġavant
ellamar
Ġrelaxing
seemed
Ġreally
ordinarily
Ġoffenses
Ġdamaging
1278
Ġcolumns
asim
dev
6432
4900
Bell
Ġanten
MW
Ġmah
Ġgib
Ġdingo
Ġflung
4279
Shi
7722
3129
Ġtrick
ĠMU
Ġchains
102
ĠOnly
adium
Ġ1931
Ġbiology
Ġlinea
Ġforthe
Ġvern
ĠAst
ecessors
ĠStephens
,âĢĿ
ĠStraits
ĠEspecially
ĠMarg
ĠElection
ĠEnterprise
Ġinfectious
Ġentran
Ġap
ada
intendo
nae
ĠSpanish
Ġtortured
ections
uttered
real
iscal
Ġextrem
Ġromance
7970
anted
Ġafar
ĠPardon
ĠTravers
Ġseafaring
ĠKenta
Ġrobe
Ġcompromise
Ġscient
ĠCaleb
gay
Ġgoody
Ġdelay
ERN
ushima
ĠStravinsky
Ġexquisite
Ġsaun
Ġskys
ĠDoc
Ġfiance
Ġreverence
ĠGermans
Ġ85
Ġengines
8565
Ġchecking
literally
ĠCreed
orporated
ĠBelt
ĠDerbyshire
Ġordering
ĠGermanic
9226
Ġshilling
obacter
grew
Pick
2128
Ġ294
Ġincomplete
itos
OY
3452
Ġmasked
ss
Ġuterus
6000
ĠLexington
Ġshocked
8702
Ġlyricist
4908
Ġseated
geance
Ġinnovative
Ġknot
ae
Ġtensions
Born
Ġglam
Ġsimulate
IM
ĠBurke
6812
ened
kW
5663
ĠAdvisory
Ġkidney
ti
ĠH
ĠMob
alt
Ġirony
2735
ĠAlwyn
hunh
Ġbull
Ġhosp
Ġaristocratic
Ġunsure
Ġpiping
Fan
323
444
Mon
Ġfetch
Ġphosph
Ġscarcely
ĠROM
El
Ġtubes
+
ween
Ġolder
ĠEmerson
2890
Ġauthorities
ossibly
ontahedron
houn
riend
Ġarousal
Ġreeling
Egg
Ġvar
Ġscrap
Ġprincipal
2138
arvon
ĠSpani
3116
ĠMate
ĠJi
Costa
ĠGUY
opia
Egypt
One
ĠÎ
Ġappearing
6381
lehem
Ġadventure
return
ĠGatepath
ĠMaxim
Ġnail
ls
Ġsanct
earl
Ġrocky
Ġnailed
angelo
ĠKann
Ġrece
ĠPurple
ĠWizard
7101
ĠTio
2780
Ġavoided
rold
Ġpotassium
DH
ĠStuffy
4225
Ġdetest
ooty
ĠIndians
ĠWAL
Ġmoan
ĠGladi
ĠAM
ĠJonathan
jar
7113
ĠSoci
5272
Ġinvariant
ĠXVIII
Lenny
ĠCHAR
Ġboost
Ġgeneric
ĠDavis
Ġpublication
8361
."
Ġslipp
kens
Ġjudge
Ġtownships
urely
Ġsmar
ĠPresent
alen
á¿
ĠKhnum
Ġcartel
iamond
visor
ithm
7586
Girls
ulated
ĠJesus
Ġpeninsula
falls
Ġraining
odar
Turbo
Ġparagraphs
ĠMales
wen
Ġ1940
Ġfared
Ġcustoms
Ġrely
8742
Ġpassports
Ġdinosaurs
mile
4509
Ġ1792
Ġneeds
Roll
ĠWERE
Ġshallow
ĠWhilst
Gloria
ĠQaleh
pig
hees
Ġmetaphor
Ġapprehend
Kin
Ġfortnight
OLAS
ĠUkrainian
ĠWorcester
Ġreins
ĠEmergency
Ġgy
Neither
Ġomn
Ġbeetles
ĠLassie
ĠNaomi
465
8780
8260
Ġweariness
Ġbr
act
Ġlighthouses
1167
comp
4320
Twelve
ĠIllustration
Ġchemist
Ġactions
ĠFernando
ĠBettina
Ġlaw
Ġfab
UNTINGDON
6384
Worst
5307
ĠPennsyl
Ġfinished
Lavender
osites
Ġobjective
ĠColumb
Ġimmun
Ġdistributing
Ġsoiled
2000
ĠElect
ĠBrother
ĠCumberland
5286
4876
agara
Ġimpaired
3227
ĠActon
Ġsubstituted
Ġrebound
Ġmyster
Ġdimly
Ġscans
Ġintervened
Ġbeen
Ġreunion
Ġevaluation
inges
Ġanywhere
Ġrelief
Ġprimary
Ġburdens
8389
Ġrushes
8853
Ġthing
1180
Ġwarehouse
icosidodecahedron
Ġneed
Ġsummer
Ġjuvenile
Ġslaughtered
Historically
Ġpowdered
ĠBessie
ĠBE
Ġantidepressants
FEM
ska
Ġbleeding
mind
398
ĠOklahoma
Ġengineering
Ġsuccessor
ĠChildren
ĠNewtons
283
675
7339
ĠCast
Ġpub
ĠMaynard
Ġflock
Ġjudgement
Aaron
ĠMinister
8822
T
Ġcivilized
Ġkeenly
Ġseventeen
Ġcardiac
Las
ÃŃs
ĠSatha
ĠPoughkeepsie
5813
Ġtablecloth
Ġexplorers
Ġtumor
xia
Ġprobation
ĠGoodman
when
bhai
Ġforensic
Ġcor
Ġcheat
Ġls
Ġgently
wald
wrong
ĠWien
ĠSoutheast
LT
aver
sense
3421
Ġcremation
Ġarise
ĠTiberius
Ġengage
Ġsergeant
Ġtrunks
Ġcourte
Ġlogar
Ġrevived
ivia
1390
Ġstole
ificent
yo
orial
ĠUnder
ĠTime
Ġminimal
loris
aff
pert
ĠIstanbul
2929
Ġlettuce
roit
Ġrunoff
Ġconsumes
7787
4099
487
Ġà¦
urie
Ġtrow
go
ĠRobby
Night
2360
8360
2053
Ms
5670
Ġplasma
7344
Ġbumper
Ġreboot
loud
Ġorganisations
Ġunfav
ĠWentworth
ĠPh
Write
8234
Ġtrad
Ġinscribed
ebus
share
comfort
Ġequally
Ġsnipp
Ġformulation
Ġpleading
manini
7167
illic
ĠRomans
Ġlighthouse
ĠMedal
Ġcoughing
1806
Ġcushions
REY
ĠHae
shh
Ġlosing
7296
ĠDalai
Ġcommanding
Ġchuckling
5535
8762
ĠRa
Ġunhar
ivil
7276
Ġindicators
7235
ĠBeckham
4769
ĠTee
ĠDukes
Ġmole
ĠAndrea
skin
umph
iev
Ġrestr
3136
Ġgreens
Ġsouth
ĠDan
Ġreference
ĠPract
Ġcope
ĠHelp
lily
Ġtreat
action
2805
Ġanxiously
quart
2856
1216
2975
built
2017
ructor
Ġviruses
BF
OM
Ġclosest
ulus
gener
ieg
Ġder
Laura
6949
ĠBard
alian
ĠFranÃ§ois
Ġpersecut
Ġdisplacement
7817
ĠDel
atas
Ġvisibility
Ġ163
Ġparts
inside
Ġpartnerships
Ġwatershed
Ġfourth
309
Ġwing
aton
omot
Ġbearing
ĠNas
Ġquieter
turns
935
Ġsuspiciously
ĠIslam
ĠMVP
erbe
5818
Ġestablishments
NG
Ġinland
3506
Ġaccusations
Ġ1807
early
Ġsober
Ġpiles
Ġone
Ġpang
iv
ĠRang
Obs
ĠGa
ĠGlory
Ġrenewal
naz
Ġsinus
ĠSarah
ĠSmollett
Ġcollects
Ġevil
Ġdash
Ġcarb
air
Ġchicken
one
Ġtit
Ġplant
Ġtraining
Ġcaterpill
3171
Ġwaits
Ġdisconnect
ĠMarsh
Ġballer
7358
Fem
Ġversus
Ġrehabil
4828
andie
gas
Ġicon
Ġinverted
8165
Ġinfrast
ĠJon
Page
Porter
Ġinvestigators
ancel
Ġbarrels
vanced
945
grand
Ġneglect
Ġserum
ĠPony
ĠCharlie
ĠJuliette
Ġtrader
8757
Î¥eah
Ġfisheries
Ġrainy
Ġremote
9089
Ġfoil
Ġexecuting
ggy
Ġspiritual
ĠUltimate
Jefferson
ĠRisca
Ġdownright
Ġaffect
Ġtrauma
anywhere
Ġgre
Ġreplacing
Ġassociations
Coffee
ects
ĠStort
Ġcirculating
Ġsurvivor
Ġdecreed
utenant
Mid
umbs
ĠâĢĻ
Ġdebate
leside
ĠRobinson
Ġnormally
Ġbart
Ġbabies
ond
ACK
Ġweight
Ġinfluences
Ġbirlinn
ĠCalvados
Canadian
UMPLESTlLTSKlN
2418
3829
ĠMamma
chio
1826
12
Hands
bubble
Ġmajors
ĠCorps
Ġlyrics
Ġthigh
ĠMejia
Ġintroducing
pants
2288
ãĥ³
Ġcand
756
597
Seventh
Ġdeserves
ĠMonitor
Ġundert
Ġneighbourhood
ĠCalder
Ġ1834
Ġillegally
ramatic
ĠTrump
remacy
8301
ĠHarold
bear
gr
Ġcharacterized
ĠCatt
ĠVes
Ġdigestion
Ġcoeducational
Ġdisplays
ĠEn
Ġvia
Ġooh
ĠMilitary
ĠEileen
Ġscissors
nesium
Ġrealism
Ġdeserved
Ġindistinct
6990
ĠRusso
Ġalign
cubic
Ġinterpretation
Ġlotto
Ġcaretaker
Ġgarages
ĠTamales
6691
Ġtou
Ġut
6486
Ġdecreasing
Ġde
Find
>
1554
ĠÅł
Indones
abjous
ĠAnimals
lov
Rec
ĠMinutes
Ġ88
Tiger
Ġrenewable
Ġed
side
ounces
2934
Ġwelcomed
GO
ĠPlanet
Ġagreements
Ġvagina
ĠUFO
ves
Ġstack
Ġpalp
910
Austral
7198
ĠPanzer
Ġpacing
Ġsummon
2179
ĠOgden
Ġ1795
happened
836
pun
rishna
igel
Ġemployment
Ġdiscipl
ffff
ruce
ĠWater
Ġflown
Ġdecrease
ĠBorough
ĠTehran
Ġfloor
Ġadore
ĠDin
Ġcounsell
7119
ĠNaperville
Safety
ĠROOM
Ġtherapist
Ġmom
3190
ĠBohemian
Ġleaflet
ĠFury
ĠAdela
ĠJoo
2908
ĠInvestment
ĠJudah
Ġlept
573
Ġgravely
Ġaxe
ena
Ġplayoff
1613
giene
ĠThompson
Ġmathem
ierce
Ġembarrassing
abul
Ġforgiving
Pol
kiss
Fantastic
ÈĽa
Ġaroma
Mobile
6270
intelligence
either
nav
Ġpatriots
onic
5059
Ġdisc
Ġ27
arrass
Ġminds
Ġweary
ĠDise
Ġaccessible
ĠRossi
Ġglac
Padget
zers
ĠJosef
AR
Ġembarrassment
chance
Ġcheap
achment
ocent
1621
Ġabused
Again
Ġking
Light
Ġaccurately
Ġshouldn
Mont
ĠLiberation
Ġreadily
Ġadds
1393
ĠKanata
Leaves
Ġcove
Couldn
2741
Ġpolitics
horn
ĠFast
Ġhunting
Ġmissile
Ġsheltered
ĠPrimetime
Dawkins
Ġmusician
8769
Ġeager
Ġsettlers
ĠBene
Douglas
Twist
ulsion
oint
rat
Ġbal
2691
ĠZach
Ġfreezer
song
Ġhourglass
Ġincorrectly
Ġowing
8101
Ġmirrored
7313
Ġhistorical
1805
Ġadmitting
ĠBian
ĠZor
1758
Ġsustainability
7859
8117
drum
Ġdisple
ches
ĠID
Ġdeclaring
2814
ĠRick
Ġfound
Major
ĠLife
isada
Ġnoise
Ġreflection
2309
Ġsidewalk
Ġcargo
Ġprospects
vertebr
3599
8413
Ġpanc
Ġparam
ĠTheory
DIST
2277
Ġ1697
Ġsix
Ġpurge
1599
ĠPole
ĠÄĢ
Always
cou
uming
Feels
ĠKaw
fran
Ġexceptionally
hetical
5726
Ġglass
Ġraging
mber
ĠAtkins
Rob
ĠKeys
Ġthreatened
ĠSwagger
Ġreput
Ġlineback
Ġobserve
4854
ĠNigeria
cheon
ĠAfricans
ination
Jud
iffe
ĠMiyamoto
Ġcomical
ei
Ġground
carrying
ĠJames
2212
ists
ĠSou
Ġbrought
ome
Ġ1937
itates
home
4686
Ġchakras
800
uc
ital
Ġmunicip
Ġconfirmed
ĠAmaz
Ġsadly
aven
Ġurge
Ġnationalism
ĠNewark
Ġits
1628
ĠSmart
Ġ42
ĠJaneiro
1044
Ġlaws
3828
ound
transl
5887
Ġ223
Ġbegging
Ġpour
ĠEvil
Ġseven
ĠRural
Ġemail
1051
Ġlamps
keys
ĠIQ
Ġtouchdowns
specific
Ġenlight
5350
ĠAle
ruit
Ġarchae
ĠRoberto
Ġprotecting
I
Ġcoloring
Ġspines
heavy
okay
nobody
ĠTRA
Ġfowl
5711
5907
Ġincon
7695
Ġcomputed
ache
Ġ14
6136
5890
Simon
ĠCanal
1512
ĠOscar
ĠLeah
ramotive
ĠKoh
Ã¼l
past
old
ĠAN
Ġconquest
Ġprolonged
Donald
%),
ĠSiri
Ġsis
itan
Ġsally
Ġbowing
Ġwickets
Shouldn
Ġaccumulation
ĠNoel
screams
ifully
207
uted
ifics
5335
Â°,
Ġdef
Ġhay
1463
movie
Ġcalm
Ġfaint
ighed
2794
corn
ulty
Dis
Ġsunny
Ġmaneu
5403
ĠDizzy
cier
Ġfestive
Ġleave
icher
ĠVarun
ĠChristina
Ġcoronation
alis
Ġheroine
Impression
ĠMyers
ĠMarufuji
ĠHaw
Ġtall
Ġcompany
ontin
6394
3896
1592
fif
7550
Ġprohibit
anor
Ġrequested
Ġ1839
Ġtalks
Elect
ĠHouses
1764
Ġphotographer
Ġmountaine
Ġaffl
5629
omer
country
ĠPaper
Ġtickets
Ġunion
Ġmonthly
4466
arg
Fun
legraph
Ġcleaned
Ġace
Inside
7835
ĠNiger
5001
Ġloses
3834
ĠQal
Ġconsisting
Ġtab
placed
ĠPrussian
committee
6655
uxe
ĠSan
Ġbonus
pleasant
Ġloading
Ġpsych
ĠStoker
drums
ayer
ĠMercedes
ĠKorean
ĠOak
5816
Ġblows
2567
fourth
Ġprint
ĠRevolutionary
Ġ"
ĠBang
2581
Ġfifteen
Ġcommemor
Ġyet
ĠSpe
Ġimpe
Ġsupportive
Ġachieving
Ġstroke
ataka
prov
eapon
UK
day
Ġrisk
ĠIntel
Ġga
9079
6760
celebr
intore
Ġempowered
Ġscientifically
Ġpard
ĠiOS
Ġconstruction
1815
Ġshall
ĠFinal
3035
4382
ĠGag
SIAN
Ġlecture
ĠHav
Ġsharing
rency
Ġbright
Ġmol
2534
Ġlicensing
Ġwrinkles
uchÃ¢tel
erun
ĠSERV
ĠAnat
35
Ġunsuccessful
unes
dak
Ġphoton
Ġbirthday
Ġshops
9007
Ġpartition
Ġpsychologists
."--_
Ġclasses
obyl
Ġop
4825
ruary
ĠInter
Ġpiety
Ġtravels
ĠPorsche
Shit
ahem
ĠOnline
aval
Ġtapping
Ġhating
ĠEnjoy
ĠWheeler
Ġposed
embered
ĠTHEIR
2338
ĠBagh
Ġphenomenal
Ġallocated
Ġgrew
rim
Ġcave
Ġslapping
ĠFr
shake
idating
ĠChurch
sle
ĠTaft
3471
Cox
5253
dogs
Ġbab
Ġsubs
gey
Ġfollow
je
Animal
Ġmud
ĠCT
2366
6969
ĠCardinal
Ġtavern
Ġbouquet
Ġadherents
Ġinvolve
Ġunload
ĠTrip
6993
Ġcertificates
ĠCowboys
arin
ĠIndeed
ĠHer
Ġthreat
ĠBertie
ento
Ġoutwe
sek
ayan
Ġhumor
ĠMil
Ġriches
Ġbod
sthmus
Ġmagnesium
ĠApostolic
2182
Ġbark
Ġcompass
hot
ignor
Ġcrimin
Ġpointless
Ġguilt
ĠPlymouth
4709
become
ĠVirtual
others
ieved
Ġshare
2947
Kind
fulness
Â¶
FT
Ġdirectly
$
ĠBR
God
Ġinstitute
Ġwhit
Ġdrainage
3410
Ġachievements
Ġcage
alow
Ġminiature
1598
Mickey
Ell
6258
separ
8371
5969
1408
ĠCharl
uba
ĠNeb
inking
ĠOlya
Ġpunching
Ġproduct
ĠCerritos
Ġhop
ĠEveryone
Ġgracefully
ĠSlavic
Ġninet
Ġmilked
Ġhide
ny
Ġloc
ĠCapt
ĠLoch
Ġcruisers
ĠGovernment
Ġplanets
Ġounce
ustrated
sole
ĠKoly
5263
Ġtables
Ġ195
ĠDeath
Ġamanda
Ġsession
Ġmanip
Ġexpose
Cy
ĠPit
8284
ware
Ġboats
ĠOlive
Ġspring
Ġdiary
7854
ĠCHAPTER
4204
Ġpermanently
ĠMale
Running
5141
3239
uclear
Ġindirectly
Ġpints
prises
Ġsul
hich
ĠAngels
belong
Ġlimestones
Sister
Ġprocessor
ĠHue
2167
Ġsc
ĠKing
ĠIndonesia
8698
Ġsooth
Ġindication
Ġhuckle
Ġtrails
3679
777
Manch
4216
3311
1416
Jesse
27
Dirk
itism
ĠPhara
988
acha
omat
Ġplants
Ġabras
1524
OND
6101
ĠJah
ĠBernstein
Ġappalling
ĠGand
Ġmatched
GR
Ġdecisions
Ġintra
Ġhyper
rette
Ġchaps
Ġ800
4774
Ġail
ĠDCE
Ġlandfall
Ġtrailers
Ġsprang
6779
uries
honey
Ġapparel
THIS
Ġpouch
6149
Ġconsumed
odecahedron
)".
poor
Ġlinger
ĠStony
Ġcollege
Ġab
2005
ĠPerm
ĠKhat
2470
Sheriff
Lud
Ġretrieve
ĠEpiscopal
TE
6234
Ġwhipping
2500
Ġdeceased
Ġworshipped
ĠMunicipality
light
2593
ĠHAP
Ġphilosophic
560
Ġgoals
Ġcrashed
ĠXamot
ĠMuÃ±oz
ĠUSSR
ime
Ġunsolved
umen
Ġ1998
Ġscan
Ġtrimmed
whimpering
2403
aning
6684
SÃ£o
mir
Malcolm
Ġdefinitive
Ġhelmets
alf
ĠMetzinger
Ġoptions
Ġeyew
ĠDevonian
ĠHou
8703
Ġfacto
Ġfinally
Ã½
Ġheh
ĠCornish
Ġprag
Ġbench
Ġshrank
Ġtt
ĠAmbrose
Ġentire
Ġhandcuffs
Ġgreat
Ġ119
3718
Ġagreed
umper
1480
ĠMarcus
3758
3206
Ġthrive
Ġdeception
ĠEastwood
8217
Thursday
ĠExpress
Ġstrolling
ĠDevon
rod
Ġboot
Ġrebellion
Ġattend
vironment
yon
Ġpressure
3549
Ġrobot
Ġbasketball
VIS
Ġacqu
ĠCaptain
2917
2172
8157
ĠCamer
alth
ĠMinn
7323
ĠNep
ĠCopland
ĠPlummer
Ġinitials
Ġamidst
tec
ĠSeon
letts
Ġdep
ĠColor
2299
Ġrains
Ġshirt
okes
2269
ĠBrahmins
ĠO
4002
ĠBir
ĠIsab
Ġ1954
Ġdilemma
Ġworkmen
Friends
Ġbaseline
Ġculprit
elsen
Ġprominent
Ġstarved
mercial
inder
5491
Ġdrivers
ĠSurvey
ĠBowl
Ġpersonal
Ġquot
Ġrewrite
Eh
Under
ELECTR
ĠAmerica
1370
author
Ġgreeting
Ġecho
Ġcosmic
ĠClerk
five
ixby
familiar
ĠHungarian
rach
Cour
4227
cki
7403
ĠSamuel
Ġhangover
ambig
igny
Tommy
ĠRams
urrent
Ġprosperous
Ġpearls
Ġtroubling
Aha
asel
354
6724
lasses
9113
Ġwent
4849
aic
ĠSites
Ġoutlying
Ġmesses
Ġpolluted
ĠArtemis
ĠScreaming
Ġdissatisfied
ĠLouisiana
ĠOrder
Self
zing
iciency
Ġlong
9150
Ġparted
5243
Ġwitch
Ġcaptain
Ġtroublesome
Ġpits
Ġ0
Ġcalend
isen
Ã´m
3193
Ġuniversity
6677
vent
Ġfiber
Ġsale
Ġheights
Ġmeadow
4761
Ġflower
7575
5844
ĠHokkaid
ozoic
7191
ĠEm
piration
Ġ1856
Ġspo
2423
ĠVERY
Ġrandom
Ġclassify
4238
Ġ103
rising
Ġhouses
Ġbulldo
Ġcruelly
ĠTasmania
ĠATP
ĠTHOSE
Ġshore
Nor
2525
8710
5129
imey
ĠBill
Ġpierced
sch
Ġlandlord
Ġaqueduct
Ġamounted
Ġinfamous
Ġ204
ief
Dear
2009
Ġsour
Ġdedicate
ĠAhmadabad
ench
Ġ274
stage
iorsen
Ġfirs
616
Ġrolls
ashi
Ġoars
elcome
rud
Ġsenators
ĠFederal
âĤĤ
kov
Ġsmothered
Seth
garita
reng
1751
OWS
iffs
ĠKhani
Pit
Ġsupposed
Ġspear
amers
Ġuncle
Ġmonsoon
Ġrestless
3905
Ġimpulse
Ġpers
ĠLight
ĠWar
emor
ĠShoreby
Ġduke
Ġexpend
ĠLena
Ġnotes
symp
),
ĠAer
Ġauthored
ĠWarriors
Ġhurled
Somehow
Trans
LS
Ġquestion
ĠParkinson
Ġexceed
Ġmotorcycles
Ġgalaxies
âĢĶâĢĿ
Ġtwisting
ĠGreetings
Ġworker
Miss
Ġunle
Ġtriple
thms
ĠRidley
ĠBoca
ige
ĠJoy
ĠMaybe
ograph
Ġdangerous
Ġhot
Ġsuggestion
Ġdetermine
Ġimprovements
7036
Ġrabbit
Ġitchy
ĠBundes
loid
3412
Ġblowing
5665
ĠAmador
Ġplease
Ġmagic
hage
ĠSahara
Ġfootsteps
cotics
Ġatheist
Ġblanket
7252
ershire
Ġeasily
Ġrab
Ġenvironment
Ġhostages
6292
Ã¥
Ġ77
5479
ĠArtists
unches
Ġforbidden
ĠWOMAN
Ġstillness
Ġharley
retired
oses
olution
gues
Ġtorpedo
Ġnutrients
Ġskies
month
won
ĠGrande
atisfaction
Ġcircuit
Ġplanned
els
istol
ĠEdmonton
Ġwhispers
8
bec
Ġstimul
ayed
imble
ermaid
Bride
1264
Sixty
564
ĠSleer
Ġsleeve
bolt
1647
Ġexpenses
itas
Ġpunched
4969
ĠBBC
some
Ġmotives
5809
6780
Ġchir
ĠThere
gom
ulle
Ġcontr
aq
ared
ĠColl
1772
ector
331
ĠHeavy
Ġchanging
3709
ĠComics
ona
Ġpursue
ĠOdysseus
alli
Stuart
Ġterror
Ġhostess
asus
Ġvolunte
NARR
agen
1963
6796
vere
242
mic
Ġgrinding
hysic
haust
Ġdaff
Walk
6468
Ġplaid
hop
ĠFlag
Ġworshi
roce
Ġtwig
ENTS
Virginia
ĠNor
6474
ref
soft
mbi
apur
ICT
ĠAlph
7238
supposed
urembi
Ġpioneering
4599
Ġenthus
Ġirresistible
ĠHumphrey
Ġplough
2341
ĠDish
epress
LAUS
riving
Ġbastard
anca
Ġcrane
ĠSham
So
5251
ĠVerm
ĠUruguay
Ġsized
Ġper
ĠGarland
Pam
ĠTARD
İ
ĠDial
2575
;
Ġexploitation
Secure
TING
ĠChan
PS
icky
ĠList
1144
Ġmutations
Ġpractised
Ġoutfit
4609
Ġtastes
ĠBroadcast
ĠGreenwood
ĠUg
Ġclapping
Ġantagon
ivir
Ġmonastery
Ġintellectual
cutta
ĠSprint
ĠDet
ĠPatel
ĠFaso
5481
ĠSI
1539
ishu
Ġbloke
Ġtook
4757
Ġappealing
uary
Ġrejected
ĠCheck
lements
ossover
ĠFlu
3313
Nothing
Ġlegend
ĠBeijing
Ġbotanist
escu
pression
uki
ĠHamilton
Ġassaults
Ã©es
ĠWins
Ġcomp
Ġmeds
Ġmagist
Ġurs
Ġenlisted
Ġbrightness
ĠPand
Ġdeployed
anie
ĠAppin
ĠOFF
eviÄĩ
Benigno
igher
Xinyi
ĠPercy
7739
8307
Ġearthly
Ġcaptained
7497
Ġrever
enger
enc
Ġtransition
ĠMedical
ĠWere
6706
6306
Ġsmall
Ġken
Ġbet
ĠRussia
hibition
kar
eric
1323
Justin
ĠCove
4469
Ġdug
overty
284
claimed
ĠGunn
ĠKrak
Simply
6190
ĠPandora
ĠMy
Call
ĠBillboard
8213
Walking
ĠNeapolitan
8738
Ġjudgments
?âĢĻ
ouses
ĠAscension
ĠClyde
Ġsick
Ġlinked
ĠExamples
butae
916
Ġrelies
in
Ġdish
ĠAberdeen
Ġhob
Af
Fig
Ġdrains
ĠProphe
2650
ĠMinds
ĠLu
ovak
Ġshoe
Ġener
Ġenters
ĠMed
Ġplanning
Ġ/
attles
KS
ĠAsian
Ġindexed
Ġacross
Ġprophe
rather
Ġchin
Ġsumm
4465
6267
Ġinvincible
Ġcompetes
ĠEns
Re
ĠLiving
8135
olved
lasting
Ġcoh
must
1208
Ġsho
Ġgarr
Ġcondition
Ġspas
ounty
ĠStrike
ĠOj
ĠGould
Ġmark
athe
Johnny
Ġrunway
ĠHanks
ĠROAR
Ġsouls
Ġelectoral
Ġshaving
ĠBram
Ġopted
Ġcomply
Ġplaydoh
ĠThatcher
Ġchocolates
ani
Ġ100
ĠShirley
guarded
299
Ġmonuments
Ġexcise
Ġlooking
Ã¢t
Ġcitizen
Ġcrowded
2933
Ġwarm
ĠJoon
ÅŁa
efer
watching
1720
ĠSwaled
hun
ĠBonaparte
Nice
fill
5098
ĠSingles
du
ĠAnna
1847
Ġscull
_;
Ġcompensation
theless
num
Ġstruggles
Ġ10
Ġinfections
Ġtorn
aries
Run
Ġlungs
ĠMake
Ġallowance
Ġconvince
Ġsquee
4989
2327
4985
cated
8249
1256
fed
Ġindividual
Ġjersey
7450
6338
5997
Ġperimeter
size
oors
ĠRanger
Ġgold
Ġadapt
ĠHobbes
reetings
Ġportrayal
9188
Ġmuffled
ĠBarton
spiritual
personal
Ġsulphur
Ġcontinual
ĠFon
zka
ĠPsilocybin
8491
Ġaccounts
ĠWhigs
2995
ĠCassino
aima
2392
Ġcoasts
ĠPied
ĠShiva
ĠBahmayi
Ġsling
ĠSteelers
Ġpatsy
Ġcremated
ango
Ġcomics
Ġmanly
2133
Ġartif
Ġmattered
3
left
4174
Ġyield
Ġlee
Ġhassle
Heart
4304
4492
professional
1094
Donna
Ġrecovering
ĠKiwirr
Darling
ĠMI
5810
Ġreal
Ġspectrum
ĠAldate
Ġreversed
ĠOperations
Ġdefining
5778
Africa
Ġinvolved
ĠStutt
Ġrestrict
Ġplugs
ĠPep
ĠBea
Ġviews
Ġmisery
Ġhaving
isans
Gab
Ġii
9049
2521
Ġroster
nian
ichach
nage
ĠClark
544
ĠNight
Ġpel
ĠThi
Ġmotor
ĠGujarat
infl
habit
Ġpoles
7412
Ġimage
orth
Ġwhale
ĠRaf
Ġmusket
nan
Ġremake
6242
Ġtag
ouli
Ġcrude
Ġfiling
embroke
,'
Ġsee
Ġthres
riage
Ġted
ĠProt
Ġcrimson
Ġdictionary
poly
Ġrage
ute
ĠHammond
Ġconfiguration
ĠGO
ĠMotion
Ġcandies
Ġ1982
2964
ĠMarx
Ġstage
Ġoblig
Ġdoubt
931
Ġrisked
Ġshouts
8339
atorial
ĠBreeze
Ġoneself
igail
1917
Ġaccord
ĠMario
Ġtbat
ĠRep
5781
8126
Ġcontractors
ĠFuji
greatest
Ġsear
2472
ĠAlan
Hanged
Bite
Ġwor
amiliar
ef
jong
ĠTy
ĠCotton
)",
Rum
Ġske
ĠNickelodeon
ĠPakhangba
ĠCould
Ġmonday
hours
fordshire
isz
ĠCIA
Ġmiser
Thir
tor
ĠAndro
Ġfleshy
ĠAnders
ĠZak
ĠAbi
Ġtempest
Ġhillside
ĠFlack
Found
ĠNote
fect
general
ĠCrystal
ĠVivian
esi
Ġdesolate
Ġal
ĠRoyal
behind
7334
Ġmelancholy
Ġwaxing
676
eting
cries
Ġbusily
send
oog
Ġbrand
7285
6407
Ġwon
âĻ«
Ġample
ĠLEGS
Ġreruns
ĠS
4580
ĠAlameda
2583
Ġsne
hak
vaz
Ġtrapez
ĠRidgeway
ORN
Ġnegotiate
Ġmutineers
Ġlifts
ĠAssociate
5060
ork
Speak
ĠClive
aking
ĠChil
ĠSykes
"?
ĠZap
2749
ĠOur
8285
Ġpresidents
93
Ġwonderful
Ġsurvival
ĠAj
olini
Ġnightmares
Second
ĠCyprus
4676
ilt
3802
Ġsocio
Time
Ġsquadrons
Ġlimited
Ġself
Ġpesticides
1017
Ġarse
hope
ĠPend
fair
Ġdynamite
Ġweighted
ĠFunny
icular
6152
Sar
6804
aming
Ġfibre
phalia
5744
Ġregulator
6719
Ġfunk
Ġ284
Ġcolumnist
Ġcultivated
ĠDemet
Ġbuddy
1699
Ġchant
gett
Ġexaminations
osed
ĠTam
worthy
cend
Ġraise
Buck
Ġmobile
Ġcondemn
Odd
tesy
7393
ĠAVX
8187
Ġtaxed
Ġassessing
Ġway
Ġrighteousness
Ġembryo
ĠPom
Ġpavement
Blow
Ġpreceding
ĠHes
enta
ieving
Ġconnectivity
2555
ĠDirection
Your
Ġdeaf
Ġtoured
2011
3346
kok
names
intercept
Ġawaits
Ġalive
Ġ270
6807
ĠLampert
wise
ĠPresident
roll
usky
uss
ay
Ġdescribed
Ġau
peek
bay
7823
Ġunmarried
Ġwave
Ġrays
llan
Ġadministrator
ĠBudapest
ovician
Ġgalloped
Ġsomersault
Scientists
ĠHope
Ġemission
Ġmerciful
Federal
ĠWitch
iliac
Ġtrucks
ilts
Ġemploying
ster
ollen
ighton
Ġgirl
rise
Ã³s
cil
523
Ġaim
Death
haven
wrote
Ġnecklace
Aunt
Mut
6211
Ġgymnasium
3419
Ġdrop
1318
7819
ĠPoetry
Ġveil
Ġfree
rist
Ġsk
Ġroller
3374
cht
8809
ĠLivesey
3404
1562
Vietnamese
5095
ĠJulie
Ġ1934
ĠRush
Ġsink
Ren
Ġartist
Ġadvising
hate
Ġdiseased
Ġoblige
Ã¨vres
Kirk
ĠHajj
Ġelectrons
4504
Pola
Ġcouple
6595
join
Ġgrants
ĠOnassis
Ġsymmetric
Ġyawning
Ġmosqu
7045
3569
ĠMall
inc
848
Ġrecorded
5236
Ez
ĠSargent
Ġsustained
Ġbaw
007
ã
Ġoccurred
Ġresidents
Ġvague
ĠTroll
ĠBren
gly
duck
Ġroyalty
Ġhighlights
titled
osof
Ġendings
Dogs
ĠMark
Ġvehicle
rential
Ġmaestro
Ġshroud
ĠToxie
ingham
Ġcritic
Ġasthma
Ġsop
3894
Ġlones
Ġ1843
Ġtadpole
Jeffrey
autom
Ġdefensive
Ġding
ĠLIKE
peration
182
ĠPrem
Ġverdict
myself
ĠSmith
Ġplatinum
Ġslopes
Ġfollowed
ĠSciences
ĠMuss
ĠAbdullah
fraid
upiter
Ġconstable
Ġmilligrams
ective
Ġlearning
Ġfolk
osse
5332
Lights
Best
Brother
leton
ĠAustin
Ye
write
Ġadvertisements
Ġsymbols
Ġbind
Kyle
ĠDOU
tic
ĠEph
ĠSON
vasive
8182
Meanwhile
Ġattracted
\
5596
ĠTownship
Ġparody
GUE
gh
Ġprosecution
3133
4387
9076
Ġdrip
equ
Ġepileptic
ĠJims
ĠShorty
"-
amahi
Ġdinosaur
Ġonline
Ġstreams
Ġstride
Ġsides
exit
box
Ġwaking
ĠNemo
5333
Ġsuitable
ĠEven
ĠComplex
owell
ĠCoach
ĠSharon
2219
fol
Ġmined
Ġpastry
8237
ĠReno
Ġaccusation
Ġdry
Ġrequirements
Ġwore
Ġsteak
1942
Sand
Ġdiet
Ġpoint
etr
Ġintr
Ġproportion
ribution
int
Ġwrestler
oeuv
south
8949
nail
ĠMerle
ĠStal
Ã±
Bernard
Ġpearl
ĠMorrissey
6712
7402
6890
Ġtoy
earing
5645
ĠSob
Ġassassinated
Ġmarvel
Ġcrushing
Ġannouncing
ĠCats
4113
commerce
Ġmusical
Whe
Ġtowel
usively
Ġfurious
Ġdeclaration
avia
ou
Ġapplied
rella
Maj
ĠLeopold
ĠMET
ĠAUT
HES
ping
Ġviolating
Ġwack
ĠGothic
aige
5134
ĠASC
Ġboarding
ĠChiefs
6112
Ġpushing
4240
8856
9145
Ġoccurs
8878
Ġmagn
uddin
3197
Ġtickle
rical
2864
Soon
ĠRed
Ġthrone
Ġcoins
Ġsubstantial
Ġlured
Ġoffic
Ġsprayed
ĠUsta
Ġnutrition
arried
ĠRance
Design
riniv
Ġshrieked
Ġcoping
ĠMEET
ĠAviation
rington
kob
dist
Ġrole
Ġconditions
Ġcum
ĠGershwin
Ġlife
ĠRail
Ġnails
abolic
ĠAgric
ĠEthel
ĠCap
Ġflexibility
8455
Ġsegreg
Ġcancelled
Ġjoke
4138
kn
Î¿ÏĤ
gments
ĠIndies
ĠWatson
ĠBarbados
ropol
1229
rae
elia
ĠBAR
</c>
ĠBarcelona
Area
Ġreproduce
Ġimpatiently
ĠBeirut
CES
Ġcommotion
Ġshots
Ġstrateg
Arch
Ġdegradation
iba
5699
ĠSutherland
lier
Ġvanqu
Ġpersisted
ueb
question
aus
Ġnorms
Ġrenewed
1905
Ġimpro
charge
Ġsincerity
Ġarisen
Ġinterpre
ĠBarr
ĠMungo
Ġlead
Ġcustody
Ġanth
Ġfi
ĠServices
ĠTried
Ġbeg
1464
Ġ135
5712
ĠJP
ĠMaria
Ġlittle
Ġmusicians
2873
idently
ë
wered
agogue
Ġforbidding
ĠSeyyed
hoppers
3160
Ġ11
Ġeligible
ĠMersenne
Ġpretence
Ġenm
Ġsalary
judice
chool
Ġfilms
5882
Ġgossip
Ġcolloqu
gg
ĠBoyd
ĠNelson
ĠTorsen
Ġshines
Ġerie
eered
Ġphotography
ĠGeoffrey
Ġexh
Kelly
7364
Ġgrapes
Ġworm
tops
ĠGLaDOS
Ġthundering
Sound
853
7189
vian
Ġspilling
Ġcollaborated
Ġcorrupted
inement
Dunno
swe
ĠCop
Ġsla
ĠLocal
2914
ĠAbr
Francis
ĠProvincial
umer
cedented
Ġcharmed
2377
uyama
Ġeyeb
ĠWhirl
sensei
Ġincorporated
Ġremoval
5244
indeed
Ġcannibal
7609
Coronation
ĠSod
Ġunused
Ġdisk
ramm
Ġprefect
6246
ĠVenkat
Ġavid
quarters
2857
5706
Ġpuke
ĠHun
Ġloop
Ġcooper
Ġpeering
ĠTransport
mann
Ġseparation
Ġpentagrammic
Ġbehaving
Ġquarterback
3887
Ġok
Ġ!
ĠPokÃ©mon
anuki
Â¤
Ġinfrared
ody
Ġcaboose
ĠRoach
Muhammad
3375
ĠVideo
4303
lmnop
Ġatmosphere
Ġdisin
Fund
rers
Ġmatter
athi
hmet
5878
emen
01
Ġalbeit
ĠGardens
Ġprayers
encer
Ġspit
4878
tires
ĠExhibition
2285
Ġcurriculum
204
orting
bush
ĠCampaign
Ġcooks
condition
Single
Mons
510
Ġhated
hai
âĢĿ,
ĠBradford
ĠMcCartney
Ġunreasonable
isal
8305
Ġfog
Ġwords
abet
hurry
Ġcowardly
Ġincentives
Ġanise
à¤¦
6305
8246
ĠBru
7432
atically
ĠZel
uerta
rives
8501
ĠXVII
rusted
1631
Mitchell
Ġpl
Ġemotional
ĠDevil
Ġstinky
ĠNR
essim
1784
Ġrepeating
ĠMinnie
ĠOlympian
Ġcalculate
Ġcl
ĠGeorg
Ġindifference
Ġcripple
ĠCrit
Ġadvert
ĠWhite
Ġvalues
Ġneut
isdom
"--
Ġpublications
Ġfirst
ĠHours
OU
communications
246
Ġsufferings
6646
Ġroaring
521
Ġpec
Ġnewt
joining
ubarb
Paula
¦
Titan
Ġconstit
years
4156
Ġreplace
ĠThoibi
ĠTiny
8349
Ġvisibly
Ġprecursor
Ġremotely
kur
1133
echn
8828
2697
Ey
42
334
Ġleaders
ĠSy
ĠChild
Ġdrops
ĠVilliers
Ġ1829
Suz
Ġenumer
1654
ĠConfederate
Ġruby
Ġhailed
2205
5617
Ġchuckles
Josie
Ġvet
5107
Ġroundup
2041
Ġmannikin
GUNSHOTS
Viol
4421
icity
ĠJang
Ġabducted
Ġquite
Win
ĠParaguay
raits
Ġwept
ĠAbsolutely
Ġtried
2791
8451
ĠBrutus
UD
3282
Shame
Ġliber
Ġfolks
uniform
ARY
striches
Ġsessions
being
3076
bon
Ġtread
pta
ĠPound
Ġdistress
ĠInn
asing
Ġprotector
3168
Ġbowel
Ġarchers
2578
Ġthinks
Ġinstallation
Pr
ipani
3721
guide
ĠDoyle
ĠBuckingham
7175
Ġquantum
ongeBob
feel
Ġshelters
aperville
production
ĠMyr
Ġbio
453
understand
Ġfarther
Ġgrotesque
Ġretired
Ġanalysis
5080
7257
ĠHarlem
ĠVarious
Ġmicroorganisms
Ġcomposition
Ġsinging
920
Stars
Pict
Ġpharaoh
Ġbankers
ĠLive
Hush
Ġhears
3792
Ġstorm
Î¿Î¿k
1322
look
aughty
Ġcommit
Ġbored
accompl
8753
5455
8868
Ġdescend
ositions
Ġhas
Ġboard
6648
ournal
Ġ2017
canonical
ĠDFB
Ġtraps
Ġvexed
Ġhomes
sey
Ġsuspicions
Ġanorexia
sburg
mat
ivar
ĠCanter
3425
Ġhoused
Ġsna
pel
Ġprocure
Ġmobilize
Ġpurg
ĠSallie
ion
1019
2619
ĠArc
Ġinclud
Ġdong
5410
Ġdominant
Ġversa
esome
Ġmiss
8269
9161
ĠCr
1824
ĠCONTINUES
ĠHeadquarters
Ġfaced
Ġsector
Ġ178
Ġbled
ĠBark
hangba
ĠLinda
ĠStigma
Ġculpr
Ġthriller
di
ĠHye
Ġcriticised
157
ignant
00
FIVE
Ġfather
Norm
Ġautomatic
4161
nat
2390
Ġorientation
Ġawards
ĠWyoming
counter
Ġpopularly
Ask
Ġstages
6470
Francesco
Ġendurance
ĠBETTER
selmo
Ġediting
7419
ackam
5323
adeshi
Ġgrains
Ġtheories
Ġawa
DAY
Ġkindred
3385
Ġdirectory
Ġdiag
Ġneuros
aps
iser
areh
Ġconducts
Ġdyslexia
Mult
Ġindicted
Ġchancell
Ġunable
1601
Weren
Ġexamined
ologne
ĠMUSIC
Ġcouncillors
acre
Ġsurroundings
Ġpurchase
WR
ochond
ĠAssy
869
ĠProfessor
Ġhistor
Ġphase
Ġlabels
Ġsteamer
ĠShahid
Garden
168
ĠÂ¶
Ġbestowed
smoke
ĠThrac
rand
539
cience
Ġappar
Division
iosa
Ġcareless
2670
Ġpigs
Ġcoo
Ġamen
Ġrustle
3895
7328
ĠGET
.
Ġrespir
Sleep
div
Gar
Ġspoils
7743
ĠGeorgia
Ġinterference
ĠYosh
5426
Ġacc
ĠHung
effic
ĠOR
Mu
Ġ222
Ġ28
ĠSenator
Ġ1951
Ġ1936
Ġwhistled
Ġaloft
ords
Ġqueer
cu
5204
ĠReverend
Pent
6300
Ġmod
2273
796
Ġjoints
inine
Ġassumptions
Rachel
Ġblacks
thood
Ġpresence
Ġgaining
Ġincarn
6620
viation
ijkstra
5338
Ġyouths
Ġspied
4872
ĠDem
Ġnightfall
Ġsher
kiy
ĠMinnesota
hele
Ġutmost
ĠZ
6202
ĠMaz
1103
Ġpublishing
Ġcontaminated
ĠRosen
Ġcaval
Ġrobust
Midd
Ġbranching
Ġensures
Ġwhites
Ġserp
ĠVend
Ġtoes
Item
Ġfeeding
1739
Ġmanuscript
3732
rug
5234
ĠOkinawa
man
ĠColombo
ĠWhis
8704
Ġtul
Ġcatching
Ġstimulus
ĠMumbai
4576
Ġmatured
ppe
Ġaffiliation
Ġbowler
ĠChen
8097
Ġunaware
ĠMikhail
Apparently
Ã¢teau
ingle
546
HALES
5646
Ġecology
Ġdow
window
1636
Ġscores
orically
ĠFawlty
my
Ġlanguage
Ġconsent
Ġclimbing
6600
hung
bane
Ġdares
Ġscept
5314
Ġepisode
Criminal
Ġfuzzy
ĠHello
239
idas
onomic
8039
ĠMarxist
Ġdevelopers
0006
Jacqueline
Ġmigrated
ĠPlayers
ommand
Ġrefreshing
Ġlabor
wal
van
Place
ENCH
Ġamong
908
ĠFace
ĠESP
ĠEddie
Ġannot
ĠEU
Ġwho
Ã¡r
illard
7207
ĠKod
Ġdyslexic
Ġdynam
ittsburgh
ĠPrit
Ġ1723
Ġdowntown
call
izers
ĠMult
ĠCountess
5254
âĢĿ
ine
ĠLithuan
Ġlisteners
4036
ynesford
eak
Ġletter
Ġke
Ġawesome
bably
black
ippley
mig
andall
omet
Ġflav
abis
ĠATT
Mater
ladesh
ĠDLR
Ġ181
9105
Ġcyclone
Ġmerchand
Ġvel
ĠLim
Ġunfor
Ġexplos
ersh
olt
ĠDemi
1563
6233
Ġnegoti
Ġgust
Ġunidentified
uz
ree
1095
8659
Ġnamed
Bern
frame
ĠPanthoibi
Ġmem
Ġartillery
Ġfirefighters
ĠLadd
fers
5674
pector
6383
Ġcomin
fuck
ĠTraditional
ĠHartford
Ġwatered
Ġsparked
Ġsumo
Ġrefusing
Ġintensely
ĠBears
Ġmessing
ĠJung
Ġcoffee
verte
Ġinitiative
Ġsite
ĠAlexandrian
ĠBurma
Ġhorrors
lik
erment
rific
vd
assed
Ġartificial
5180
ĠNext
Ġstacked
8472
Ġvenue
ĠTeddy
iley
Ġwarning
onial
Ġacute
ĠGriffin
ÅŁti
ĠTec
ĠBarco
Ġhyster
7137
7753
Ġsponsors
run
issance
5710
GHIJK
March
ĠLajos
Ġderived
schild
Ġregain
Do
ĠSaito
gomery
Ġiron
levant
Ġsculptures
1823
Ġburrow
ĠAWAY
ĠJesse
Ac
ener
Ã¶
Ġtypical
ories
ĠService
zac
40
Ġ1996
Ġfacility
Ġagainst
celer
ĠHem
6959
Club
Ġpret
561
Ġhadn
Ġoppon
Ġlocomotives
ĠToby
Ġprov
2842
Ġrabbits
Ġbooklet
Ġthinker
ight
ĠThis
ĠKu
ACT
ĠEston
Ġdictatorship
Ġtheolog
Zinc
264
ĠColleges
ICA
AGE
ĠOtherwise
ĠLabour
Bal
Ġ1790
Ġmissionaries
Ġintestine
ĠBou
Ġrankings
Daily
winner
IN
points
ĠAudi
Ġprograms
ĠWHO
Stud
2352
8975
3334
Ġdevised
Protestant
6428
ĠLiberty
Hannah
ĠMt
Standard
Ġcompletion
ĠRambo
Ġenlarge
owe
Ġcottage
Ġbanquet
atter
igrate
bowl
3757
achal
Ġeld
Ġopenings
ĠExchange
Ġseize
ubs
thren
uart
Bomb
Ġloveliest
ĠDemocrats
ĠOlympi
Ġmask
ĠNoah
ĠEcu
Ġsusp
ĠNigel
ĠEva
Ġsecretary
9132
Ã©rÃ©
why
Leaving
Safe
soil
Aurora
Ġvelvet
Ġalcohol
Ġfellas
6287
6447
4712
Ġpill
white
armed
ĠArlington
Ġtestified
Ġstats
No
Luckily
dry
Ġembalming
ĠBEL
Ġtripping
ĠFROM
ĠBess
Swed
Ġundoubtedly
Ġrelic
olds
Continue
Ġ2015
Ġweaker
posts
thrown
ĠSent
Ġjab
ĠGarcÃŃa
Ġboyfriends
ĠHills
Ġeh
appy
Ġgenet
Ġpic
5661
Ġpronounced
Pants
Ġexclude
Ġgale
never
Ġgr
1143
ĠTrem
ĠKarls
302
2465
Ġmetamorph
Ġtougher
wa
arily
Ġbeneath
ossip
1902
hman
Ġpre
Ġoutline
prefecture
Ġgoodbye
ĠSwab
Ġperfor
3261
pla
ĠTwain
ĠNorton
itian
60
Lex
atsby
TW
Ġmale
Gun
redict
Ġbewild
1421
Ġfeeble
Ġjackpot
ĠLakewood
8790
Ġ1810
Ġne
Ġbrothers
ĠQuin
minded
ĠON
Youth
autions
lawful
Ġirresponsible
Ġmule
1722
eltine
water
2033
Ġchestnuts
every
3498
4813
Ġconspicuous
Ġcuring
using
Ġseaside
2455
iza
7704
Ġsurvey
Ġsimilar
gger
Ġconfl
ĠAthenian
ĠMiddle
obi
Ġexp
ĠAustralasia
ristan
33
MOND
fall
Armor
Lean
5430
icrous
Ġdrastic
Ġelegant
Ġtributaries
ĠShanghai
Ġdrug
ĠTorrecastro
Ġlumps
Ġcites
Ġargument
ogens
Ġmed
ĠHell
ĠSex
Ġreel
Ġdwarf
,--"
1079
Ġcountries
ations
Ġcoin
Verilog
reach
ĠSinclair
ĠBourne
2844
caught
Ġ315
Ġissued
Ó
ĠChristian
Despite
Ġadvantages
ittany
Ġnutritious
4105
Fix
ĠMcCl
Ġorganizational
steel
See
rance
Ġsevere
Bauer
ternative
ĠClarkson
has
Ġlecturer
ĠGertrude
4381
142
ĠWilbur
eez
Ġpreached
ĠDepot
ĠMouth
Ġyonder
ĠDB
7827
orphism
53
Ġdispersion
Ġflapping
ĠMyka
Oly
Announcer
ĠThor
1812
actually
Toy
Ġalot
arium
hala
Ġmetabolism
ifting
ias
Ġviz
Ġflip
sec
Ġrestore
Ġboys
5585
Ġstretching
761
kill
ĠCe
Ġkits
5676
Ġlitre
Ġ1990
ĠSomebody
Fly
den
Ġsolved
Ġsentry
8804
Ġcontempl
ĠMIN
ĠYouth
Ġexorcism
darling
Ġfumbles
4448
Ġmedical
Ġcanon
eming
iformes
2335
Ġgeomet
Ġsmartphones
2487
Ġfry
Ġaden
Ġignor
Ġhereafter
Ġcareer
2373
ivers
Ġdisguised
Ġcheek
Ġcrowned
Ġprevalent
Ġspeeding
Ġstaying
ĠAdvice
Ġprone
ĠBereng
ĠLem
8160
ĠHT
ĠGiralda
Ġanecd
ĠSpot
end
Ġpresiding
ĠRath
Ġanalog
Ġdependents
ĠSri
7274
Ass
pped
Ġnicknames
Ġ304
1362
3162
Ġpremises
oz
8838
Ġlitter
ĠTopper
ĠFlam
Ġgiant
ĠKur
ĠSilver
Ġcondom
Bray
asive
Ġremorse
Met
Ġworn
Ġchor
ĠWord
Ġrematch
ĠSanto
ajo
Ġmoaned
Ġnamesake
!--
Ġlogistics
914
Ġbelieve
where
Ġhyd
Ġ70
cials
Ġconvenience
Serve
ĠWANTED
ĠAli
Ġtries
ĠPartridge
ĠSad
Ġswallowed
3105
ĠFrankfurt
Ġchattering
Senior
8322
ĠHatha
Ġprost
Dog
llie
CON
Push
Ġtragedy
Ġconsort
mony
4850
Ġbound
4242
Kha
Ġsock
ĠPenda
Guard
ĠGreg
ĠSet
2018
ĠKarnataka
Air
ĠHavana
ĠPanama
Common
872
pering
Ġtow
5635
Ġchallenges
Ġresp
two
2415
ireh
978
Ġtragedies
Ġmurderous
ĠStef
Ġfundraising
Ġscattering
Center
Ġreef
5764
Ġintell
Ġresiding
6373
abl
healthy
ĠPendleton
Ġslippers
5873
ĠKashmir
|
Ifyou
capital
Ġuntouched
565
ĠWhen
Ġno
8375
ĠGovern
Ġcheque
Ġtreasurer
ĠProtection
3007
aders
Ġmaintenance
7597
Ġvirtuous
Est
Ġmeant
ĠNicky
Comp
force
Ġbrag
Ġreceive
gart
told
ĠBruno
ĠPatty
ĠNCAA
ambi
ĠBurgess
Ġapron
Ġcorresponds
defense
ĠTRAMP
Ram
Ġfiery
ijk
7308
coach
ĠDarling
Ġvo
Ġplans
ĠBennet
1879
ulent
ĠKad
che
ĠFestival
Ast
Ġtitled
Ġdetectives
Ġtechnician
Ġsusceptible
Ġnun
2290
ĠBlount
lÃ¨s
ĠLeader
Ġleaving
Ġregrets
3448
74
Rest
Ġ1932
KNOCK
ĠFair
Ġeastward
Ġald
brad
5404
ĠBaroque
5366
Ġclinical
3993
ĠSouthampton
Ġsalesman
Ġæ
Ġdefor
Ġnightclubs
Ġpolythe
5397
ft
Every
4777
5131
Ġengineered
Couple
ĠHector
7445
Ġuprising
Ġhazel
á½¹
8636
9218
ĠHol
Ġdefence
Ġquarrels
Ġhome
fly
tree
ĠObs
6462
Ġglobal
Ġ66
1380
v
Ġbon
Ãł
ĠGonz
ĠTimothy
nik
Ġgloves
quiao
1117
8289
Mass
Ġelastic
ĠDays
rices
3811
reathing
agn
Use
1280
Ġanew
record
went
icorn
Ġzinc
ĠMush
Ġrooster
Ġhours
ĠReagan
iphon
Ġretaining
Ġbrooding
Ġpurcha
Possibly
Ġchaired
ĠPetty
Ġregist
Ġ45
940
antics
2721
MO
Ġvoluntary
nesian
frey
bubbles
Pity
ĠWallenda
8275
ĠCheng
Ġbunches
Ġchunks
ĠLairen
Ġrealized
Ġpouring
ĠDonovan
town
Ġbarrow
Ġpublicity
3780
RB
Ġannoy
ĠTemple
riters
Ġpleasures
ĠSar
Ġforgetting
Ġunrel
erves
chat
Ġinterl
Ġorganise
Ġprescribe
Ġapprentice
Ġquestionna
2120
ĠSylvester
ĠKev
Ġunconsciously
cient
Ġspell
6070
command
8431
Ġtherm
Ott
ĠSandy
Gosh
ĠSardinia
Ġmidnight
7333
Ġdeft
Ġmere
Ġriding
Ġleaning
nun
ĠLogan
ĠPublic
Ġintest
5035
Ġmostly
ĠArchbishop
Ġassociate
Ġgazing
3497
ritic
Ġcred
eters
Ġbooth
embling
endix
Ġgaunt
ĠJabberwocky
4147
onia
ĠKrabs
Ġmarked
5864
Ġmethodology
3702
acia
Ġvitality
Ġreproach
IEF
Ġsquir
7168
oi
hic
ĠMubarak
Ġpressing
cm
Ġcompressed
Ġflew
ĠMain
5402
Ġrefrain
Ġfortifications
Ġgrasping
Ġadults
idious
Ġstranger
Mil
Ġmarking
reen
Ġreceipt
Ġtimetable
eds
Ġtaught
Ġpositively
Ġlaunch
Ġtaking
ĠMoul
overlapping
iska
Ġ277
7766
ĠSokka
ĠTit
time
ĠBan
Ġfe
Ġendorse
stuff
9119
1179
7709
Ġ180
Ġtranslates
Ġreplica
omba
Add
Ġdrill
eland
Ġparties
Ġsucker
Deb
7224
Ġmosaic
ENGINE
Ġhypers
Ġhypothetical
ustomed
Sant
Ġcorresponded
Ġcompensate
ĠQas
652
arr
present
monton
Ġamino
ĠColts
3183
2460
osevelt
Ġmechanical
Ġrept
ĠArabic
Mark
rop
7199
Ġwaving
Ġventure
embl
Ġleisure
ugga
Ġsliding
Ġrest
Ġdimension
7635
ruct
Ġdisqual
6244
umbled
ĠOrganization
2834
lanes
ĠPhilippe
gum
Turning
ĠMoat
Ġrelinqu
character
ĠQuasimodo
Thought
cribe
Ġrisks
2296
ĠBangladeshi
prised
Blue
Ġcape
Ġgrace
1617
Ġlurking
Ġlow
Ġrep
Ġproduce
ĠSCREAMING
ĠSiah
Ġtouch
Ġrevolutionary
Ġforgets
6140
9228
Ġprettily
ĠVik
1164
Ġelderman
Ġgallows
Ġstate
ĠPors
Ġunderstandable
Ġ
Alex
orious
Ġclassroom
1655
ordon
ivic
4446
6614
ĠTHINGS
ighb
Hark
dong
1389
Ġgardens
Ġkitten
Ġcheered
ĠMEN
instance
Ġscheme
88
Ġconsequence
Ġsurplus
Prepare
Ġdisturbance
emon
YaYa
Post
Ġtart
while
ĠLac
Ġq
ĠPress
craft
3485
1354
Ġbeginner
Ġregul
Ġid
2054
2801
Ġdolly
ĠACC
afe
ĠRotundia
ĠMadge
Ġhuman
ĉ
hee
Ġcommod
formula
Ġcosmetics
Ġdecorate
Ġskills
omon
6289
8458
Ġvener
rab
ellers
3351
Ġinstructed
cher
235
Ġkim
Ġrapidity
wives
Ġcollaboration
ĠWn
5189
Ġhotter
6345
Ġnicknamed
Ġscience
ĠSasan
ĠMajor
Ġfist
ained
AS
Ġscre
6170
ĠHull
ĠCreek
Ġshores
pite
Ġinhabitants
Ġtournament
6408
Ġauthentic
jury
hern
note
Ġmarkings
Ġaccompanying
ĠDae
2140
Ġattire
Ġimped
upp
Ġthaw
Ġcheaper
3176
Ġhazard
Ġrit
2241
Eyes
Ġhonorary
Ġalloy
aer
WW
ĠTHIS
Turkish
WHAT
Ge
ivores
Ġsporting
Ġzero
1417
Ġchlor
59
1838
Ġrevised
94
ĠAss
Ġeasier
ci
ĠFlying
2810
cost
Ġproprietary
5695
Ġnavigate
Ġadrenal
é
Ġgranola
2956
2300
ĠOutstanding
Ġexpressing
6245
Ġviolinist
ĠBoys
Ġtires
ĠArul
ĠCann
Rap
8824
Ġfilth
Ġmantle
ĠMeng
ĠConstantinople
Ġinception
Ġdur
emberg
Î²
ĠIto
buzz
Î¿u
means
5590
Ġtally
Ġdiam
Came
Ġregions
ĠMP
ong
2170
ĠManipuri
ĠNaz
stitutional
5046
7946
Ġprogramming
ĠLouvain
6792
):
9090
Ġrobbery
4130
ĠNest
4880
sil
ĠJacksonville
Ġmirth
Ġrelay
ĠDob
Ġsplendor
Ġdeviation
ĠArts
aky
Ġshaman
Krishna
Ġovertook
ORGE
Ġlowly
Cyr
kand
agles
6675
asa
afia
Ġnominee
2755
Ġharsh
290
Ġthemed
ac
ÃŃa
kyll
Ġwithout
Ġbucks
rative
ĠBless
ury
Ġseed
Ġworried
BECAUSE
ĠMord
adys
ĠLOOK
Ġlegendary
Ġbelieved
miral
1242
ĠFreedom
atism
ĠJACKIE
Ø¯
Ġmillisec
ĠDancing
ominable
Ġcredibility
Ġelectron
Ġattractions
Ġtheology
Ġbreak
ĠGan
Ġtour
Ġprojects
ĠPrincip
OME
Ġbrun
amar
ĠSands
OMEN
Ġ?
ience
479
ophie
special
4159
7717
ĠCorn
Ġsire
olite
utus
Ġdefinition
Ġlock
Ġpreference
ĠChor
Ġsalt
prison
ĠFateh
ĠPhlox
4639
ĠLove
ĠStephanie
Ġencouragement
1491
Ġpseudo
Ġflooding
1550
communic
ĠHorace
6207
ĠAthena
Ġpatches
Ġ1824
Ġthat
6150
Ġsaus
Ġflying
Ġ900
Ġimprov
ĠPOS
Ġfles
Ð½
Ġbigger
Ġdoorbell
915
oty
Ġjunk
6045
Ġhog
Ġlabelled
cass
ĠAdele
Îº
Ġwholesale
ĠRab
8174
Ġnomine
agadish
mie
ĠThus
ĠPye
ulch
Ö
SU
1001
tight
Ġlimp
Ġglands
sel
375
582
Phone
Ġcartil
Ġboun
ĠAPPRO
Ronald
ĠFist
dinand
ĠPoo
Ġarchaeologists
snow
Ġtowing
tes
ĠConnors
hapsody
1083
Ġundertaken
ĠOro
Ġmolarity
Ġmildly
ality
Ġmirrors
ĠLance
ĠBoth
Ġtorture
Ġinvolvement
ĠSeth
fortun
5349
ĠErasmus
ĠHose
Terry
Ġfacing
reme
ĠYugoslav
1299
unik
Ġsuperv
adier
cturnal
ghed
ĠGue
arly
ka
Ġwrites
Ġencir
Ġprey
Ã¯
Ġassociated
ĠHeat
Ġfond
âĢİ,
ule
Ġdemand
ĠRegan
stantial
Ġshivering
ĠAddons
Code
worker
ropical
Ġ1972
Ġstation
Ġvoting
ĠEducation
Ġtrouble
Ġnamely
voc
Ġmeeting
8153
ogical
8308
ĠMediterranean
ĠSynd
Ġliberated
celona
Ġcrown
Ê»
inals
Ġmuddy
Perfect
Ġweekdays
Ġtremble
ĠMalt
Ġcollectively
ĠGiesselin
Ġmatron
Production
Ġwis
apped
6508
Ġnicer
Ġtenor
Ġsinners
Ġuncertainty
ĠDevicescape
security
ĠSens
ussia
Ġhopeful
Large
Ġinterests
ĠLocke
Ġstandards
Ġspoke
Ġverbs
ĠStaff
Ġrapper
Ġsurgeons
Ġcue
ĠRavi
Ġsomeone
Ġsuffering
Ġcelebrated
Yo
Ġentity
Ġsorts
Ġborrow
1957
Ġhavoc
girlfriend
Ġgrud
Ġtemple
Ġcoarse
ĠAero
Ġconcludes
izen
Ġreside
Ġfrivol
Ġengraving
4400
5549
Ġli
ĠBlast
Ġshoemaker
Ġrasp
ĠMuj
ggae
8810
graduate
Ġunknown
6406
department
Ġchoice
Ġserpent
whoop
3843
girl
4264
7004
Ġblacksmith
430
ĠâĢĶ
issa
ĠAdams
ague
ĠAsk
Ly
Ġescal
Ġchaplain
Ġprecedent
Ġvalentine
Ġstimulation
Ġchimpanzees
Ġmargar
Pl
rugged
Ġcomprehensive
Ġviper
Collins
Ġcapsule
OWING
ĠDover
Ġupd
Ġlessons
NC
Ġasking
ĠMani
pass
Ġlark
Ġ2023
nau
Ġconcerns
2080
4650
Ġpact
ĠWisdom
Ġidyll
verse
Ġdat
Ġlou
Ġdishes
Ġtransmitted
ĠZelda
ovision
BRE
6868
6657
sever
Finish
allow
Ġsand
Ġmisunderstood
Ġ1922
4152
olas
aby
rived
747
izarre
ĠRudy
Ġunpleasant
^(
appers
Ġleaflets
Ġpyg
ĠIM
Ġcontacting
urities
ander
ĠOfficer
rero
tshire
6501
ÃŁ
Ġvillains
ĠKats
udite
7686
Ġai
Ġranger
ĠTaj
1701
Ġcello
pherds
Ġshovel
ĠFRENCH
ĠAlbright
ĠIBM
2452
cluding
Ġconfirm
Aust
Ġproport
Ġword
ĠWrestling
ĠPrague
ĠKap
AF
Ġ90
3355
ĠScout
2845
1569
ĠRankeillor
ĠMarianne
Ġfilming
Ġmosquito
ĠAsi
ĠUn
2798
6427
7832
Ġflux
whispering
ussed
ĠyÎ¿u
ĠNikola
7404
Ġapp
vana
870
Ġstomach
Ġsubstance
2062
ĠEach
experience
Them
Ġhopped
ĠDoctors
jung
estion
ental
estly
Ġripple
Of
Whatever
throat
Ġalk
Ġblock
5422
Ġosc
ĠAguilera
ĠByr
7258
_,
ĠCol
Ġnephew
Ġnotion
2382
1099
Ġverb
6105
Ġ79
ivities
Ġsun
Ġvoted
6638
1846
Ġ2021
Sy
Ġsuffers
ĠRamos
Ġpaycheck
Ġtotals
Ġpredecessors
Assuming
ĠFil
give
Ġstarfish
Ġgloomily
ĠBann
Der
ink
Ġdiplomat
Ġreinforce
3884
ĠNorway
Ġmonument
did
Ġcurren
2548
Ġtornadoes
1069
Ġpushes
279
Ġthickness
acea
Ġboulders
indra
quin
ĠDS
Ġshipped
ĠConstitution
aper
3281
ĠMaple
Ã©
Ġdegrad
6204
4070
Political
Ġinclude
ĠAdvert
Ġestablished
regon
5365
Ġclears
ĠKhy
Initially
Tok
Ġalgebra
Ġnovelty
Ġcolony
ĠLouisa
Ġweeks
ĠBuff
Ġtomorrow
Ġbanished
9115
Ġgiraffe
Ġvir
Ġweakened
ĠhÃ¦
Ġrue
ĠRuby
Ġliteracy
Ġtackle
Â´
Ġplastic
ints
avirus
ĠTino
East
Ġfragile
Angela
vents
ĠQan
ĠPale
Ġargues
ĠWhether
Ġthirt
Ġtelegraph
ĠCarly
ographically
Cary
Jos
Ġwithdrawing
Germany
2060
1459
ĠMicro
ĠGerald
anderbilt
ĠMiller
ĠBlastobasidae
Bush
Ġgolf
Ġscorched
Ġopp
8993
Ġparty
3389
1012
2809
Female
igrams
avis
ĠAncient
ĠDar
Ġpp
6284
akes
6131
ĠWalker
Ġneurot
Ġsubconscious
ulation
ocr
Ġtr
Ġtenses
Ġcarriers
jord
ĠSang
Ġpunished
8342
Ġobsession
me
Ġcontractor
ĠAccess
ĠAges
Ġspacious
Ġrecursion
ĠSay
guns
Ġfungi
Ġunarmed
ĠSomalia
5508
Cloudy
winter
Ġcellular
ustration
ĠMead
2978
5636
Ġhalls
book
ĠWhy
onge
3148
Ġrepaired
Ġforget
9181
Ġclean
7789
1744
Ġparl
2594
imony
Ġunin
ĠNasir
ĠLAST
ĠVenez
herence
Ġbathe
Ġdoors
Ġhive
1343
Ġa
castle
anuary
ĠSlightly
ĠFRI
say
Ġare
Ġequipped
ĠRanke
Ġharness
Ġ311
2221
ikan
hol
Ġdusk
5373
4281
1962
ĠBald
sometimes
Ġnavigation
boro
ĠKarthikeyan
6195
Ġname
Ġtun
17
Ġbrig
6339
Jackie
ĠBorders
Ġammo
Ġdonkey
ĠDorud
7696
ĠSoy
rr
Ġtherapy
Ġhhe
Tan
Ġ1794
Ġdrugs
5874
Ġreprodu
Women
Beginning
Ġrouted
Ġbud
8338
Ġinitiated
Ġthereof
Farm
essional
Ġmechanic
hail
Ġ113
Ġcrucifix
Ġmant
4752
Ġfiscal
ĠWaste
Ġmov
Ġvers
Ġfalsely
ead
Ġtyp
8877
Line
="
Ġtex
Ġarr
Ġworst
ĠGrass
Ġcabbages
Ġfainter
kurra
8604
ilan
7205
Ġultimate
1780
upon
2647
3266
Ġhorsemen
3505
ĠAid
Ġcounters
Ele
Ġdealings
ĠStrava
pired
Ġplains
8896
Ġpleasure
958
Swing
Ġwithered
6085
8108
4206
ophile
8035
ĠFork
Small
ĠCapitan
4772
Ġrockets
ĠWaldorf
2144
ĠSpeaking
rees
Ġtaped
5794
uddenly
4830
yers
orange
Ġetern
anza
7391
ershot
ĠAuto
National
Ġhundred
389
Colonel
dreams
Catherine
ĠMahir
undo
Ġsummarized
Ġbranding
Ġpimp
aw
lt
Ġpedal
mot
at
Rollo
ĠEurope
Ġregularly
Ġequilibrium
While
Ġimmortal
Ġtaps
urbed
Ġabout
826
othy
ĠBundesliga
Ġtonnes
ĠClorinda
Cand
Ġindications
Ĥ
ĠTob
Ġreserves
Ġ``
Ġurban
5488
ala
Ġdebates
Ġsmelled
Ġthoughtfully
izing
Ġlimitations
ĠBravo
empniak
ert
Ġdesign
ĠBretagne
Rise
Ġiniti
Ġsore
mounted
Ġcircle
Ġicosahedron
ĠHass
Ġexperienced
6589
founded
Ġincap
vous
ĠForty
ushu
Ġappointed
AST
Ġpush
4476
ĠAIDS
Ġinterviews
1893
ĠChampion
4997
Ġcontribut
fur
6654
Ġroot
1771
ĠRue
Ġliberty
Ġrepresentative
6153
runcated
ĠAngus
6611
ĠSandover
Ġnought
Ġconsciously
hiro
Space
ĠCoffee
tergeist
Ġentertained
Ġcrossed
Ġportrayed
Ġ417
minute
Ġflavour
Ġbaby
Ġdetained
Ġseizing
Magic
Ġcitizens
7865
".
ĠEconomics
ĠAchievement
xton
grunts
fts
arrondissement
212
Ġcreative
755
Ġshock
itable
1792
Ġ159
Ġunhappy
Ġquarter
Above
atu
Ġattendance
iggler
7491
ĠSec
init
ĠMecca
1557
Ġcabbage
5487
Ġrecruit
8050
Wanna
Ġproceed
Ġappearances
Ġmates
4857
Merc
ĠGranny
ĠCLICKS
6676
ĠPope
Ġextent
Ġgrenades
Ġmaritime
7310
video
5986
Ã¨re
1619
Ġaid
ĠAP
ĠPast
Ġrights
Ġpebbles
ĠDead
5930
ĠAuckland
6829
570
ĠKhan
Ġ123
igm
Ġbladder
ĠCOVID
ĠGrade
ĠAw
Ġwond
ĠShel
comm
ĠDalmat
6392
Ġlegislature
oted
controlled
fried
Ġmissionary
Freud
ĠEqu
Sergeant
ĠSpilsbury
lad
HI
BIT
Ġpromot
ĠSofla
Ġconnection
1582
ĠSny
ĠMalays
Ġclosing
ĠJackson
apping
Ġvib
Ġdestinations
Ġvital
6167
Ġadequ
3006
Ġgiggle
109
3232
Ġrevoir
Ġshaping
Ġcontract
iah
ĠMember
818
8214
Ġshine
ĠKany
ilic
3415
hl
Ġswims
ĠGriffith
nois
Ġconsiderate
Ġarmies
718
Ġenv
althy
usal
4904
ĠKell
lavery
2383
Ġkeepers
Town
antern
2202
Ġdojo
Salle
6732
Thats
ĠPrize
981
Sh
produ
Ġmadman
Ġindia
Ġdolls
Ġfancy
Ġhunters
Ġchiefs
Cass
ĠArizona
Robinson
ĠPersia
noon
lying
basket
lest
Card
Ġruining
5094
4297
Ġfrontier
186
Ġspeeds
ĠAB
5414
Ġgraceful
1239
rix
ĠCutter
ĠTelugu
ĠEdison
Ġwishing
Ġengineers
ĠCorner
3748
Ġpillar
ization
Geor
beneath
FOR
Ġable
8369
Ġbliss
ide
Ġbackground
Ġalley
ĠCAA
ĠFant
ublin
Like
Everybody
ain
asc
rov
1668
Ġarray
Ġ{
Dev
ĠMach
5008
ĠGoodbye
Ġintercept
Ġsigned
Je
2533
6876
eder
ĠPolice
7187
2986
4602
eng
ĠNAT
Ġfearful
Ġcurls
5431
ĠStrange
Ġpooh
People
Ġillumin
IGHT
ĠLuther
dwell
Humans
Ġrupt
ousin
De
7465
Yours
ĠAstr
4461
Ġabsent
ĠAbbot
Ġlibert
ĠCarter
Ġanaly
ĠWT
ĠFOUND
Ġmillimeters
uck
grunting
Ġpark
7136
THANK
Ġathletes
Ġ25
Ġwhose
ĠIsrael
Ġinstitutions
Ġpilgrim
Holl
Ġ[...
Ġneedn
ĠJorge
anium
Ġloaf
4003
)/
ĠLock
Ġ1886
ennel
ĠYiddish
3262
ĠMOBLEY
gones
Ġpatty
Ġnominated
Ġdiagrams
fucking
Screw
ĠRedruth
start
ĠSoo
chimat
ĠDhar
Ġwidespread
5808
1736
ĠPrinceton
Ġdamaged
Ġemployees
ĠHum
Ap
silocybin
engers
ĠCatholicism
neither
Ġtalking
5821
AUDlBLE
Ġlocals
ĠLav
3369
Pak
Ġcomfortable
ĠPavel
ust
atabad
1574
ERY
ĠWeiss
Ġcracks
yay
ĠDuggan
subject
ĠBomb
3693
Ġhousekeeper
Ġpreface
Ġeup
Ġskulls
Dancing
Ġgenetic
ors
ffic
Ġsomethin
Ġscor
Sallie
Ġunions
ĠBhai
Ġprivile
740
Ġawoke
8960
1828
Winter
Tr
ĠZX
Ġplayoffs
Ġaffections
*)
ĠSY
Ġburgers
ĠÎ¤
Ġwoven
ĠCongress
Ġhoe
Ġpeppers
icon
ĠVel
6115
Ġgraham
Ġfreak
ĠSAM
Ġnumbers
arette
986
Ġadvances
Ġattitude
Ġveteran
idodecahedron
ĠSharp
Ġpronounce
ĠCarac
Ġpenis
Ġfrosty
671
ickle
?",
stone
ĠHISPANIOLA
2580
2289
.'"
4141
2639
3388
uti
fing
3462
Ġrejoin
Ġconversion
ĠZack
ĠDistinguished
ĠâĢĭ
ĠHern
Ġevery
Ġmarsh
ĠBlue
Ġarchaeologist
Ġ225
kai
End
Winner
iffic
Ġkingdom
izo
oups
Ġintently
Ġarrival
silocy
Grad
3535
ĠJoanna
ĠNIGHT
Ni
7170
Ġ1891
5357
Ġkept
Ġhuts
Ġscars
pent
deal
ĠAlleg
Ġunwanted
4680
ĠNeither
Ġmaneuver
ĠColin
Ġnaked
Ġmaple
Ġmarriage
ĠXiangshan
Ã®
Ġeuthanasia
Hero
933
coin
Ġpicks
ĠYoko
2258
Ġbuccaneer
ĠTri
Ġclaims
29
8250
7353
Ġfactor
Ġcrackers
interested
6113
Ġleased
Ġsoothing
Ġslightly
Ġculmin
Ġdownwards
ĠTuan
Aside
ĠZoey
ĠFantasy
Ġsorely
ulic
3560
ĠBennett
2692
incarnation
2023
maker
Ġfreeing
Senator
ĠCreat
Don
3639
ĠDom
2673
started
Terence
924
Ġsuperiors
gate
Ġtrace
Ġproc
ase
ĠAmendment
ĠSpencer
Ġcricketer
Ġpromptly
ĠTheater
3490
7892
ĠSalon
wreck
ĠCherry
ĠMound
ĠNewcastle
alyst
ĠâĢĺ
unction
ĠXX
Ġtips
hias
Ġhost
ĠSimple
Chun
Î¿me
arently
defghijklmnopqr
ĠDub
Ġcox
Ġalbums
D
ofun
Ġrear
ĠAub
6500
281
Ġparan
Ġunderstands
ĠPAL
391
Ġcreating
1590
Eddie
ilsbury
ĠTop
1453
7392
1352
ĠMorton
Ġpancake
range
ward
Jean
Ã³w
ben
Ġnobles
ĠENOUGH
4993
ĠBemis
ammit
Podesta
à¥į
Ġcocked
1929
3210
Ġ1838
Sher
Ġpes
1842
ĠGondwana
occ
Ġverand
Somewhere
Ġprecipitation
ĠSherman
Ġbirthplace
Ġplug
Government
8332
ĠHIST
Ġasex
dale
8365
ĠBEING
Ġconceptual
ift
Seo
qu
most
5093
Ġ1812
2931
three
Ġseventy
Ġtid
Ġglances
5979
Ġindividuals
Ġrichness
Ġconverter
8407
ĠCors
ĠLuc
Ġcurv
Ġprohib
5173
Ġrubble
Ġmarried
Ġexpanded
Ġlifetime
Ġescaped
Ġ1928
816
886
Ġpanel
388
ĠFine
672
Ġamid
Ġresemblance
Ġcollaps
Ġperished
ĠNamibia
Ġemployee
ĠCarmen
Butter
ĠParents
ilet
ĠCort
ĠWelk
Ġsummertime
Corn
Ġaging
Ġdifferently
Ġintermedi
ere
8393
3708
Ġfreestyle
Ġheirs
Ġbiod
Ġweap
1827
Ġsew
3854
463
urisd
ĠMes
Ġzeal
ĠRey
onsense
ĠElephant
3326
ĠMast
ĠRon
Ġinfect
Ġ73
cold
7877
Ġvisitors
2714
ĠWi
Ġupcoming
ĠCohen
iculous
super
Ġsouthward
ĠBearskin
ĠBoh
Korean
Ġimitated
1369
AE
ĠCec
Pure
ĠDollar
ĠYu
ĠVivie
Ġbeaver
ķ
anta
7070
Ġfourteenth
Ġendless
Ġindec
amb
3089
Ġopponent
ĠKaren
ĠIde
Ġvacation
iled
Ġcuff
WHY
ĠRosek
Ġmanufacture
ixon
jam
Ġstatue
Ġfashionable
ĠBels
inks
ĠArabs
Ġrye
Ġoverthrown
Ġyielding
Ġjurisdictions
Ġmeow
particular
alie
oles
osc
2040
iw
wave
ĠBrigade
ensed
6412
ĠAndrew
rophies
Ġwalk
Ġconsequ
medi
Ġrepresent
ĠWed
Ġsole
Ġridge
uffled
85
lington
mother
6825
Ġlights
1477
IDS
Shin
ya
char
ĠDepression
icted
ĠJules
Gib
Ġvent
7776
Ġfaster
1829
8585
166
Ġgang
ODY
Ġchiefly
ĠKongyamba
ĠCy
Ġexempt
lime
arctic
Ġautom
Ġshuddered
osaurs
4408
Joy
ĠGriff
Ġadvocate
ĠPier
Alt
ĠMedicare
lock
6219
ĠCre
3697
PROPERTIES
Ġdisappointing
Ġchilly
5200
Ġcocaine
Ġperish
egal
GC
det
Ġreconsider
ĠCongressman
ĠBrussels
wara
Ġmatt
Mey
1528
9133
ĠWatt
3865
estial
3487
1156
Ġaccommod
ĠCin
ÛĮ
Ġrush
ĠSilva
(_
6325
Ġidly
states
hammed
nie
ĠPir
Ġmuslin
,[
Ġfounded
6097
5328
ĠDyn
Ġkicks
Liber
igan
Ġinstit
Ġglittering
Ġrhythmic
Ġordinary
Ġcommits
Crawford
Ġscraps
6275
Ġstricken
Ġbree
Ġchina
ĠChandler
fan
ĠSugar
Ġ&
asian
Ġweb
Ġwidow
ĠDou
Ġisle
Ġstuffing
5729
Ġblasp
ĠPall
Ġgather
uremberg
wayne
Ġodd
Ġchrist
urther
Ġoverview
exc
ĠBaden
Love
Ġascribed
learn
ĠWinter
ĠLeban
Ġcrawling
Âª
5343
ĠPeyton
8096
phy
ham
owdered
ĠMeadow
ĠInv
ĠNur
Ġfollowing
2298
Ġpoints
rial
Ġnigga
Ġsongwriter
Ġgroom
ĠCastile
Ġculturally
Ġpolitician
Ġseparated
nant
Ġbrut
ĠK
ĠCretaceous
6355
5252
ater
raz
5360
Ġrehearsal
quite
Ġabstract
ĠCNN
Ġissue
SK
Ġhorribly
Ġinterfe
Ð²
8251
Ġcleaning
Ġabnormal
Ġthumbs
5847
1595
6440
1237
5324
ĠCacapon
Ġhotel
Ġterminate
7580
Unlike
asingly
mean
Ġfive
Ġunveiled
Ġends
Pe
Ġracist
Ġsuspects
Ġhopping
Ġalike
Ġmanhood
8976
ĠTrophy
Ġprecedence
Ġpiece
RES
Ġcomes
5940
Ġuseful
ĠSwim
knows
stinct
ĠManila
vertently
Ġbreathlessly
1296
Ġwager
ĠAcademy
ĠIsk
ĠOm
soldiers
Ġclos
ĠInformation
Ġhandicapped
Ġdy
Ġlargely
Ġ911
Ġguineas
3339
Ġspeaks
Ġgrandparents
ĠModern
ĠAlton
Ġtaken
ĠGRO
Ġhandc
Parliament
4215
ĠKheyrabad
affles
Ġseem
osop
ĠIsh
ĠSl
Ġcraft
6344
Ġpay
Ġinstituted
vision
Ġanticipated
Ġhanging
7498
Ġprotested
Ġjudicial
Ïħ
4422
ĠMuffette
1436
6377
Scandin
asses
rawford
ĠFerry
ĠCenter
ĠGann
kt
2590
Ġsponsorship
Ġbarr
Ġmorals
Ġpri
1594
Ġwatery
ĠMystic
8367
Ġerror
consciously
otion
ĠDim
hanks
Ġpsychotic
Ġrestraining
arrama
ĠIke
5485
Ġpractice
6621
assel
onel
asters
ASE
Battle
2972
ĠIraq
ĠTreasury
7474
8801
Ġwonderfully
ĠAmit
phic
UM
axis
LING
Ġpoetic
rocities
ture
Eleanor
Ġlateral
ĠHut
asimodo
teen
Ġhideous
Ġproposals
Ġducks
Ġbuccaneers
arming
Ġinsults
ĠEngineer
ĠStra
trouble
Ġbarefoot
Ġpow
ĠARE
ĠDefense
Presently
Ġmustard
m
3438
Away
Ġ1851
rya
Ã§ois
Ġdeserve
ĠBros
Ġcustomers
umbles
Ġpalaest
kian
Ġchampions
ampshire
2983
ĠCatholics
inaudible
4114
irvana
coma
umalo
7416
nigh
3447
4328
Ġstory
2486
Ġprotests
:)
Ġjer
8814
2597
Ġnegot
breed
2819
Ġbromide
Ġaud
4539
8871
Gentlemen
Friday
1502
husband
OlyÄģ
ĠIOR
Ġspaces
ĠSultan
Ġgenes
Direct
Ġlair
108
Ġtel
ĠBeau
vernment
ĠNy
Ġstrained
Ġsqueeze
Ġtendencies
Ġseiz
An
ĠGOP
ren
Ġcultivation
ĠGates
velling
Bag
ipt
Ġcampus
2648
ĠGame
Ġvicious
ĠEff
Ġcruc
guards
8348
ĠLl
Ġsecular
osphate
Ġ360
Ġbund
4871
7565
Ġankle
INS
Ġclothed
Ġconsented
Ġlie
Ġoptional
ĠRaff
OUND
Ġsimpler
Mostly
engu
apan
Ġinducted
Ġliking
iqu
iving
579
Ġtragic
Ġprestigious
ĠMafia
women
hanging
Ġlate
Wasn
ĠViki
8215
ĠBarcl
Ġsought
historical
Philadelphia
huahua
Panc
hotep
Ġthankful
wall
6274
ĠFord
5898
Ġseconded
Ġcontrast
Ġfostered
match
z
3733
ĠDugald
ĠCupid
Ġtemplate
711
ĠWil
6429
Ġvigour
education
Ġquotes
4140
6263
2204
Ġencourage
tooth
7816
Tar
Ġ47
4005
ĠKer
5201
Ġ1878
Ġproverb
Ġimportant
ĠTask
ĠRaider
Ġgenres
Trouble
Ġgener
Ġpubl
ĠHop
Ġparlor
ĠCaspian
4262
ĠNews
ĠNatalie
Ġmotivating
786
Ġ24
4385
ĠOrion
Ġcass
Ġcorrespondence
ĠSports
Ġchecked
1977
7751
7701
itoneal
ce
Ġcap
346
1987
Cra
Ġpix
Ġpancakes
elle
ĠSoviet
Ġcorp
ĠGiovanni
5755
aut
lings
Stat
5275
ĠShiraz
4790
uguh
3301
ample
Ġstake
daughter
Ġfortunes
Ġhurtful
Ġworships
Farewell
ĠDerbys
stan
iche
Ġautomobile
ggers
ROOK
Ġimplored
ĠTal
Ġsorce
Ġmythology
Ġincludes
ordinary
2016
ĠErm
Out
Ġtraditional
ĠIndepend
aternity
Ġrises
Pont
5274
ĠCoronation
Name
Ġheat
Yale
Mam
ĠCed
2695
Ġlearn
2253
Na
6079
Ġpanties
Ġoverwhelming
ĠBain
ĠTucker
Ġthrash
Plenty
7719
ĠChir
Ġ53
4128
PokÃ©mon
Ġ610
ĠBecause
8979
ĠChech
ĠAv
Ġ5
ĠRV
ĠRH
4008
2151
orical
Ġmutually
ĠProvin
Ġbuoy
ĠCAN
ouc
worked
ĠBreton
anson
Ġthreaten
Ġmonks
Ġisot
Quake
Ġstrife
ĠEngineering
alo
string
119
Ġkilometers
Ġdeadline
Ġwallet
Ġinternationally
Ġsly
ĠEt
carbon
Adrian
103
queline
Ġmurderers
din
Ġshekhar
cis
ive
Ġtreasure
Ġrevel
eless
Ġbunch
Ir
3466
4456
6634
Ġairing
1219
3742
Ġwherever
Ġpreparing
8168
ĠAdult
ĠGEORGE
Ġhat
Ġjour
ĠGregory
Ġexplosive
7452
5625
ĠDuring
ĠDow
5233
ĠPhry
Ġdimensions
8404
iency
9219
ĠSweden
656
687
ortion
icos
Ġhelpless
having
Ġcandles
arus
Ġpha
Ġdownstairs
1591
7407
7272
Ġreasonable
Ġinstruments
6597
Ġphony
sarah
Ġdrawers
Kim
3799
ĠSafety
ĠMarie
Ġpair
breaking
changing
2356
Ġfrequ
Ġwounds
6465
object
ĠVirginia
ĠFors
Ġeffusion
Ġprojecting
Ġsells
ĠIskandar
eded
Ġdownward
becue
Ġsenseless
Ġnineteen
Ġindict
VO
2804
8827
Ġcylindrical
Ġpredic
ĠStockton
ucky
Ġtesting
ĠBricher
ĠWailing
atesby
Ġcupboard
Ġabund
Ġpe
drawn
ĠHee
ĠValent
4406
Ġuniquely
Ġdisappearing
Ġlint
ĠHawaiian
Ġcamped
ĠTrenary
8465
ĠHolden
dehyde
ladder
Jeez
ĠMcCabe
Baptist
Ġwarmest
Sexual
Ġpursuing
ĠVicente
ĠNARA
Hu
ples
4137
Ġmanufacturers
Ġblind
6174
ĠLieutenant
Ja
Ġleague
Ġappealed
ĠHolt
Ġsampling
kespeare
oston
Ġresources
Ġspir
zadeh
ĠWitness
Ġrapture
ĠOdessa
ĠAlexandra
ese
Ġclaws
Ġtowed
osht
Ġprick
EAH
Earth
elder
Ġdraft
ĠBach
Ġgenerals
`
Ġdictator
Ġshe
Ġcuriously
Ġadverse
Ġdeficiency
ald
Personally
ĠChah
Ġclues
ĠKhos
Ġlikely
Hol
Ġportfol
Ġ193
estan
ĠRo
road
',
Ġconfir
ĠEaster
ĠCross
Ġspeeches
1498
4540
nice
Van
1659
Ġindifferent
Ġsophomore
7162
ĠBucharest
Ġdw
lemn
ording
falling
ĠPaolo
captain
Ġlollipop
suggest
644
Ġtrials
cientific
Ġwait
ĠSpy
6681
ittal
Ġnut
Ġsynt
ĠKarn
Rough
4133
ĠUniversity
ĠForeign
ĠStre
Bu
Ġrender
Ray
Oxley
1406
Ġpeach
opening
Ġconclud
Ġdeficit
Ġdiseases
fter
Mason
7670
Ġnorthwest
Ġmissing
9001
ĠTs
Non
Ġgoalkeeper
de
cow
modern
Ġpromote
Ġscrewed
Ġmend
6354
oda
1187
ĠPeg
Ġrhythms
2319
ĠMuch
Ġfavour
aired
vy
Ġintent
Ġ1870
ĠBuckley
1850
Cam
¢
ĠDove
5476
Ġrushing
Mine
4593
Ġregretted
ĠPalestinian
Ġovernight
Ġfiercely
³
Ġqualities
Ġparents
ccording
6139
Ġdonated
wheel
6231
thol
1140
alus
Ġanchored
YELLING
ĠDjibouti
ĠGed
aphone
8178
5239
ĠSecretary
ĠJem
quest
onte
Ġpistols
ĠTheft
Ġapproves
ĠhÃ¦mothorax
Hey
ĠNOT
Ġjumps
Suddenly
eshmeh
Ġshame
5888
Ġwizard
Ġhelplessness
Ġthirteen
ĠGalile
ĠTerry
2007
borne
Ġassessment
Ġemb
Ġmr
Ġmemorable
Ġinterrupting
ĠHadley
ĠBaek
Ġinsufficient
ĠBangladesh
ĠKlein
ĠFever
Ġteas
u
ĠRM
Ġmultip
Ġprotesting
FMAN
Ġalteration
uka
Ġdel
Ġriots
Meet
Ġslip
ertainly
ĠRandolph
Ġprominence
female
cause
ur
DO
ĠGalaxy
aces
5155
aped
Ġachieve
6604
umbling
4481
Ġoversight
7711
Tris
Ġbuffet
Edith
Ġgasp
3904
Ġtoxins
ĠIs
eck
amps
7151
pared
fecture
Ġhistoric
Ġdestruction
2686
Ġdiscovers
Ġdisposal
Ġrobberies
Ġblank
Ġupl
Mania
1188
ĠTula
Ġwraith
ĠReally
Ġpter
Ġbubbly
Ġfavorable
Ġyelling
Ġwoke
egr
2469
1951
Ġeliminated
4191
GAN
cole
ila
ĠQu
ravity
Ġpatriotic
Ġjok
ges
Ġ2004
Ġcyclonic
ĠKhnumhotep
ĠSefid
Ġorigin
385
irty
Ġresident
Ġapologise
bra
rap
8464
8379
Ġdise
.).
Ġmuffin
ori
Pardon
abulary
ĠÄĢb
ating
Ġcut
Ġsack
Ġpenetrate
ĠBuccane
4767
Ġnonetheless
rnga
under
Ġfills
Ġauthorised
Ġdisabled
Ġmain
ĠANOTHER
Ġwistfully
1854
ĠLeland
Ġoptimization
6671
Ġlaundry
Could
ĠGrammy
3986
Clean
ĠNebraska
Ġactivities
5145
ĠMits
ĠPension
Ġvertebra
uing
á¸
Ġauthority
laura
shed
ĠScientific
mouth
acht
Ġpessimistic
Ġcapp
uses
ola
7740
5440
Ġbitterly
ĠHolmes
2450
Ġsim
Ġhugged
ĠTorch
ĠCho
Ġsit
ĠBaltimore
versation
ĠGall
Ġrelatives
Ġcompare
Ġmonsieur
ĠNeg
Ġbelongs
Ġdiaph
ilk
Ġsixpence
ĠWedding
Ġpeanuts
ĠDenver
unch
Ġtrun
LE
Ġlobby
iano
ĠJewish
6586
Public
Ġreckless
ĠBellingham
ĠQuiet
ĠSyrians
Ġ1991
ĠAstros
3155
Ġprices
vado
Ike
Ġcomprises
worship
Ġjail
Ġsilvery
Ġconditioning
Ġ243
Ġhiding
ĠKangleipak
ĠAdmiralty
8779
9098
uous
Ġyog
ĠHD
milk
ettles
Israel
Ġarch
Ġmultiplayer
ASH
Ġaggregate
ĠWoody
Ġphilanthrop
ĠAround
Ġsettings
Ġsingle
Ġconsiderable
ulator
shit
Ġimagin
ĠPhileine
ĠSignal
ĠThe
Ġstinging
ĠTechn
Ġdense
Ġinsens
Ġcameo
ello
ĠCrying
Ġaccess
8385
Ġ().
Ġbackyard
Ġsharia
Burn
Morgan
8713
6320
ĠOUR
gree
ĠGest
156
ĠTend
ĠBarrett
Ġcampaigned
832
2932
Ġconcourse
Home
Î¿l
Ġsummary
Ġresign
ĠArmy
7989
ERE
1000
Ġabruptly
trem
Ġpunch
Ġknew
olo
Ġaccurate
Ġguiding
Ġrecu
werp
Ġdar
ĠTangak
3075
Ġpneumonia
7009
hardt
Ġeliminate
Soul
Ġarrived
2960
ĠFresco
ĠChampionship
ĠHogan
Ġcomments
ĠMID
ĠHistorically
Ġguardian
ĠAlban
inity
ĠDragon
ADE
Ġlas
5334
Ã©nÃ©
Ġopinions
ĠApost
Ġ501
Ġripping
8194
Ġrailway
Ġanniversary
ĠFergus
rimony
8882
osure
Ġrests
indo
INA
ĠSpit
Lieutenant
ĠScandinavian
oney
Ġdem
Ġrecognise
9176
Ġfused
Ġinhab
ĠWoll
2999
8357
Ġloo
Ġadvisory
gins
ĠHoll
Ġindustry
Olive
Ġwell
Ġemotions
2853
ardens
Ġleadership
Ġphenomen
Ġorders
6290
Ġtad
Ġfulfill
Ġrewarded
ĠHil
Ġsucked
ĠPulitzer
Kept
ĠFE
ĠCBD
ouver
NEWS
Ġfreezing
2920
Ġvirt
Ġsails
Ġmarker
cluded
nee
esse
Ġrobes
Ġsplit
1964
Ã¼h
Ġtelev
iken
Ġarc
artment
rets
ĠJacqueline
Ġpregnant
1869
Gee
Ġshrill
orp
Yep
ĠLeave
atest
ĠIEE
Ġstrengthen
Ġpestic
ĠDenton
oline
ĠPeruvian
Ġmessengers
ĠHill
entire
ĠBadger
ĠCÃ¦sar
Ġcoolant
ĠElectramotive
ĠDIN
Ġproofs
aliland
ordin
maid
7406
ĠBLA
tape
2386
ĠTel
8383
4273
Ġreflexes
Ġ2012
1579
peed
ĠHan
5119
ĠSee
Ġislands
ĠAntonio
raid
strich
Ġvaccines
Ġsquare
ĠProper
Didn
Ġunanimous
uated
ĠHob
4698
Ġhippo
ĠPiper
addle
Ġbasic
Stop
Ġnaturally
spl
ĠHashem
Ġfilm
Ġ1950
ĠReport
Ġ235
iable
lT
Ġpyramid
aurus
Ġimpeachment
ĠTurks
Ġconclusion
4979
lau
Ġdart
Ġtaxis
7828
Ġlogical
Ġmass
III
ĠEk
Ġdost
Ġdarling
8093
eys
oons
uni
ĠRanch
3818
Ġrecognized
8045
Ġassembled
6721
ĠYankee
ĠValley
Ġjoyfully
9184
Ġasked
100
1642
Ġplague
ĠMidland
Ġfavours
Î±
Ġviolation
ĠLeslie
Ġorch
Remove
Ġharm
Ġ142
Ġrecently
987
ĠPhippen
Ġsilk
Ġbankruptcy
Ġinvestigate
ĠDasht
Ġfidelity
3151
rosse
avana
Hast
ĠExpl
Ġhappened
Ġclenched
2294
circum
Ġanthropologists
Ġcontains
seen
ĠCoote
ĠWilliams
1890
1427
hotra
Ġreferring
Ġfif
ĠOlympic
5834
BO
8888
1
ĠRest
Ġdestroy
ĠHod
Ġestablishment
Ġpiled
ĠOrchard
Ġnomin
Ġsubtropical
Ġcylinders
aker
Ġastonishing
Ġlik
ĠSchwart
Ġredu
idelberg
2399
Ġsubjects
tles
Kaz
ĠRutherford
Ġmainframe
ĠRegency
5507
ĠMilk
Ġstret
ĠTyler
minster
eur
Ġministry
Ġdefences
Ġabsorbed
Ġinex
Check
ĠJolly
6560
population
eding
7899
ĠMoreover
Ġdevelop
Ġtricks
enha
hetto
3902
ĠPC
ĠPran
7007
7182
Pra
ĠAisne
VER
illac
ĠDaan
Di
atsy
Ġcondemnation
ores
ominated
Ġbug
operation
Ġweed
ĠLau
Ġparting
ĠCain
6232
ĠAdvanced
inceton
Ġjournal
9128
ĠXV
4360
Oh
4764
5229
Ġplumbing
Ġthro
Ġbid
ĠLords
Ġrocker
Ġvocation
SO
3869
394
ĠBilly
5679
iot
Ġtimet
Ġour
ĠFresh
Ġtadp
Ġwarmer
ĠLent
Ġfalsehood
Ġjew
aneously
Ġ200
mberg
Ġupdated
Ġlandlords
ĠBoxing
Ġthunderstorms
ĠVil
Ġcountenance
everybody
Ohio
Ġsuggest
eper
1258
ĠMoh
ĠVer
ĠSister
Ġstrenuous
Ġwid
Ġshells
Ġdial
6266
ĠHOUSE
ĠJamie
ĠSteele
Ġstrategies
Ġshadows
Ġconfined
ooges
ĠCups
ĠBoise
Mic
ĠDevices
ĠDarren
Capt
Ġduration
ĠSpr
ĠPlum
308
ĠLeaves
ĠDaytona
bir
Ġworkplace
3372
Ġpean
2657
Ġparticipate
Ġaggrav
Ġremind
ĠAldershot
Port
ipl
uffed
erers
ant
Ġteach
ĠWitt
Ġhumour
Ġadventures
Ġmethane
Ġalt
ĠPacquiao
Ġbristles
ĠWels
Ġbasement
ĠParish
Ġsigma
Ġcolors
ĠFeld
ĠSw
Past
Ġcrank
6894
ailles
Ġunlikely
2166
Ġlearnt
2457
cit
2946
ATHING
ĠIndex
Ġcommunion
7375
Ġsuperst
andor
Ġtransp
7410
125
ĠMmm
ĠBrenda
unk
ĠCor
ĠAllie
3161
ovich
Ġsplendid
iero
itious
5319
Sidenote
Ġbabbling
Ġhacked
3463
Zero
Ġgears
Ġparallel
Want
Ġaugmented
Ġaband
ahedron
Ġbiodiversity
Ġshortcut
ĠTL
ĠDanny
Antig
Ġtransactions
Ġdonation
Ġfores
Ġtangent
ĠJain
cook
Ġdramatic
Ġheroism
azzi
Ġwaiting
stal
ĠJam
Ġperm
Ġecosystems
9213
Ġgunshot
Ġproper
Ġaccompaniment
Ġloft
Ġtrading
uously
1561
CAR
7546
ilshaw
ransmit
incess
eco
distance
370
Ġsleeper
ĠEast
BUR
ĠGi
ĠClear
ĠLines
2141
Ġlooks
Kar
ĠLor
Ġsuffice
ĠProgressive
4266
Ġshutting
ages
ĠJin
Ġcubic
Ġmaterial
3736
olley
Ġprisons
Ġchap
baby
umar
ĠRapids
Ġensuring
dos
olf
8420
4357
Ġgram
single
aceans
6481
ĠOl
Ġpops
ĠYus
Ġcompens
dis
sight
Ġinfrawave
Sad
Ġofthis
Ġwarmth
Ġmasturb
Ġstrongh
ĠCOULD
Ġexecutive
Break
Ġgrown
qual
Chi
6659
ĠArum
Ġamiss
Ġelectors
Ġinability
Ġlady
Ġcommunists
Proceed
Ġberry
Ġproviding
ĠSection
ĠNope
dr
ĠOF
ment
Arab
ĠProgram
Ġroam
Mission
Quiet
commonly
Thousands
Ġhorizontal
abling
ĠFEL
Ġorchest
ĠCentral
Ġdarts
Ġoccult
ĠCUR
ĠEtr
aquin
Ġfounder
ĠPhant
rols
885
ordination
Ready
ĠHist
avalry
Ġlads
Ġred
190
am
Ġsheep
Ġvigil
ĠGoldfin
Ġharnessed
ĠPotomac
5786
US
à§
1851
Ġfellows
Ġdismiss
ynth
3101
Ġroughly
1901
Ġvoice
ÂĻ
ĠUtrecht
ul
ĠHor
Ġrhet
8718
Ġapolog
Lucas
Ġbig
hera
large
{\
3837
5980
ĠPath
Ġadjustment
Ġcanal
venan
ightest
Ġsquad
Ġfirm
Ġautomotive
uma
Ġkill
UMP
Ġanger
BELL
Ġsavages
Ġformulated
Ġcyclist
ĠAunt
cast
ultures
Ġmetals
7089
gypt
ĠTechnology
6388
ĠAccount
3996
Ġevapor
take
ĠAbnegation
Ġpeace
Ġtheater
Ġheir
ĠRIGHT
Ġcompassion
7396
AUGH
1740
3416
rout
Ġdirections
lust
Ġgum
otle
Ġtyres
Ġsymptoms
Ġepile
ĠLimb
ĠCAR
Ġglee
ĠDiego
Ġadmir
Ġedges
Ġcontacts
8364
Lily
1351
ĠFrenchman
Ġniche
ĠBuYeo
Ġ255
Ġordered
Ġhorses
Ġsympathetic
Ġacre
ĠPos
ĠDream
Ġdisbanded
6713
8767
orns
works
ĠIm
8569
Ġsuppress
4965
miles
ĠNations
uate
Ġqueens
Ġuniforms
mil
4770
Ġ=
Ġcrashing
ĠPART
ourin
ĠCharleston
isting
Ġsongwriting
3864
5814
Ġsullen
ĠMarge
Ab
4181
7601
Ġgiggling
Ġglasses
Ġtons
3039
7852
Ġlocated
Ġfisherman
lis
IF
ĠGol
Ġcuz
Ġended
Governor
ĠFel
7384
Stanley
Å«
ĠBristol
Ġalong
ĠSophia
Ġgulf
7906
Ġalbat
Ġbully
nature
3960
ĠThou
7794
Ġ190
6365
busters
Ġcask
eavor
Ġpurse
1713
Ġtortoise
inth
ĠWalt
6455
ayette
Bruce
Ġcomparative
ection
Ġkisser
Dist
Ġ1890
ĠLancashire
705
AFTA
ĠJian
8315
Ġindicates
You
1810
2152
axy
6372
Vernon
Ġshuts
Ġqueen
neum
entlemen
mented
Ġbenz
istan
Ġmaid
ĠIz
Ġenvironments
Ġpersonage
Ġchaos
Ġmultiplication
avid
Ke
aha
bound
ĠNic
ĠHat
ĠAgriculture
481
frank
ĠGujar
Ġblinked
Stone
Ġresembling
Ġstalling
orld
3491
ĠHarper
Ġsolitude
9003
Ġdiffers
av
ĠMount
eges
8396
ĠScreen
growing
Ġdiffer
seller
ution
ĠPanam
ĠBeatles
ĠBengal
Cool
Ġringing
Ġfa
ensity
Ġbounty
ggie
sseldorf
Ġinstitutes
Ġrecord
Ġdoc
appear
rior
Ġorthodox
Ġego
hings
qbal
ism
emar
inki
Ġcollea
Ġstudying
Ġfoe
Ġprocessed
Ġamer
Ġunderwear
oinu
1710
Ġtrod
Ġsupreme
Ġslaught
5669
ĠLom
Ġreverse
Ġclimax
entieth
nyard
uder
RSB
Ġconform
Ġparticles
Ġproudly
insula
Ġasexual
ĠCaithness
Ġunworthy
ieux
DOOR
Ġaccommodate
Ġmining
Ġthanks
abytes
osexual
ĠRUN
cule
ĠQUE
6080
Ġapplic
Ġdecay
Ġstreamed
Ġsubstit
ĠPatsy
Ġ00
ĠSi
Ġlowering
reached
azzle
Ġquaint
idine
Ġadopt
Ġwax
Ġdrank
ĠSalailen
Ġexotic
7732
Ġfencing
Ġtimes
2927
Ġprejudices
640
Ġsmallest
Andrew
Ġbrakes
football
Ġknow
ĠUnderwood
Ġtemperate
tick
ĠDand
Ġ."
ĠMatilda
Ġrecreation
ĠSchwartz
ĠKhed
trick
Ġsoybean
2743
Ġconver
Ġspokesman
6580
Ġbutterflyfish
6460
Ġgrocer
Ġsnake
Ġtap
ĠTr
Ġglow
Ġcorrected
Ġproposition
erate
Ġmrs
Ġconverting
Ġremarkable
Ġsarcast
Ġatrocities
Ġbrutal
ĠIÃ¢
asu
ĠWeekend
Ġbattleship
MUSIC
party
1882
Ġ33
isconsin
4798
Ġexercised
ĠScotch
Ġproperly
Ġdepos
6704
Ġcharcoal
Ġants
6722
othin
girls
Ġcondu
Ġlinear
Ġdescendants
eto
ĠLITTLE
4432
Ġobjection
Roberts
Ġz
Ġtrench
ondyl
ĠNurses
trade
Ġcoils
rained
heriff
ĠThings
Ġmuck
1431
EPING
Ġshooter
1332
4480
'll
7850
hysical
5876
Western
Ġinevitable
ĠINTO
273
isman
7423
ERS
1662
ĠJos
amination
Indian
Station
mph
6382
Ġcompose
Ġlact
ĠBALL
Ġhelm
Hamilton
opolis
Ġicosicosidodecahedron
ĠCHATTERING
Ġplateau
otto
7158
fat
Ġschedule
»
4311
Ġupright
ĠStooges
Ġclips
ĠZinc
idered
Z
4796
1859
Ġhumanitarian
ĠGreywater
angi
ĠCelt
Ġthomas
Ġrift
pecially
wh
863
Ġpupil
ĠFULL
8788
2126
IZ
Ġ2009
967
Malpla
hyllis
124
front
style
3293
Ġorganism
Ġtrams
Ġaffirm
5390
lla
ĠBit
Ġstacks
great
Ġpicture
stopp
ELY
abbed
8776
Ġmunicipality
5609
Ġteam
hazzar
ĠInternal
ĠAtlant
va
4716
For
ĠLin
that
Ġbrandy
iences
Ġprescribed
ĠCamden
itz
ĠDalm
ĠCool
Ġfederal
8754
OW
elope
ĠAND
Ġtu
Ġarmor
wing
9000
ĠDoubs
Murder
Ġsnug
ym
ĠAxel
ĠShuttle
5868
7341
Ġpollution
avan
ĠSwans
Ġawait
ĠLiu
Ġillusions
7830
Ġspot
iture
Ġhiking
Ġsimulcast
ectual
Ġreduce
7242
ĠSaints
Ġearn
Ġeffectiveness
uthors
ĠPap
ĠWould
Ġorganizing
hob
ĠVinci
7697
ĠAut
Ġdiverse
ipp
1365
4669
rang
ĠLisa
ĠSn
Ġworking
ĠRochester
Ġsoaring
ember
Ġcostume
ĠBerkeley
Ġslew
ĠMalek
ĠPlayStation
Gem
ultural
Ġmic
onse
entive
Ġviolins
ĠWake
ĠDixie
ĠGannibal
Trevor
7060
Ġfags
Mes
Ġthan
6697
Ġsatir
2431
hock
ĠBerg
Ġlost
ĠBened
Ġtelegram
817
Ġeth
ĠDiamond
Ġbroadcaster
imin
ĠST
ĠFriar
Ġpreferences
cell
Ġtelescopes
abus
ĠSchool
Hemingway
stupid
Ġsound
ĠKrapp
ĠCat
Ġwat
rology
Ġrecipients
relief
Ġqualify
Ġskeleton
Ġsoutheast
Ġmushrooms
ĠREV
7724
ĠApart
Ġblow
Ġproblem
Ġhell
Ġpajamas
Ġnina
ĠSejm
Ġnarcotics
Ġbitcoin
ĠPLAYS
Ġpronoun
8873
4784
ĠNero
Ġenforced
Ġcuckoo
ĠPrim
Ġancient
Ġslaughter
glasses
ĠAyr
ULL
Ġparcels
Ġbill
Ġcomposed
tax
iped
7332
Ġposthumously
Ġbooked
Ġstrode
ĠDirect
Ġflips
Unless
stroke
Ġregiments
Ġexplanations
Ġposing
Ġnobleman
yev
Ġnuclear
ĠPot
7435
ptions
Ġassumption
ggles
ansom
ollah
Ġrider
ĠHonours
Ġvotes
ĠMEAN
Ġfauc
Ġduel
Ġhealth
Ġreactions
Ġrepres
magÃ¼l
Ġeminent
Ġbarbarians
Ġsentiments
Ġwelcoming
Ġcomple
proport
hobia
Ġcaller
emic
ygen
1807
Ġ34
ĠSolomon
Ġnormal
ĠAugust
ĠGuard
ĠOttoman
Ġbroke
Ġdivisions
9035
Ġglanced
reta
Ġfrench
ĠGM
ent
launched
eches
Ġmemorial
iant
Ġgover
HEL
7373
ĠPretty
ĠCow
2759
Ġyoga
7245
figure
Ġarrangement
1649
odd
ĠDenmark
1768
Ġproducers
ĠArab
kid
Agent
pay
ĠSounds
Ġoffender
Bew
Ġresembled
Ġadherent
ĠApplied
Ġbandage
ĠSiberia
Ġvariability
anpÃ¤Ã¤
ĠMarquis
Ġmobil
ĠGha
Ġdress
5449
Ġ1910
ĠAlice
2147
gotten
8811
ĠBala
ĠJoaquin
116
ĠAlison
ulses
Ġbisexual
bros
7059
Ġartic
Ġsickle
Ġbeing
773
ĠHave
Ġtriumph
1891
Ġmand
adise
Un
Ġupwards
Ġoccupy
3177
Nar
narrow
blaster
ĠFields
SW
Ġfreedoms
ĠBiology
Ash
olis
Ġacceleration
riet
2725
Ġpol
4403
ĠPetunikoff
incorporated
Ġimperfect
Frankie
ĠCoc
ĠGas
Ġoverjoyed
Ġcoffins
ĠInterest
Ġstri
Impossible
ĠUdd
k
Ġbattlefield
Rio
ract
attery
Ġcontender
cake
Ġhave
Mull
Dennis
ins
Connie
«
7085
Ze
Ġrainfall
Ġminded
ĠDavid
othing
allion
3109
aining
Î½
3724
ĠCelebr
4824
Ġsuns
Ġnotable
Ġaft
ĠEucl
Ġanalyses
Ãªme
inyl
2279
Ġnevertheless
Ġlegacy
ptive
ppard
ĠAra
Ġintimacy
Ġhybrid
ibu
2550
1397
eno
Ġfudge
Ġvertical
qua
Ġfast
Ġ46
4150
azar
Ġfeds
Opp
Ġ149
2778
Ġpermits
733
Ġclaimed
Pre
mo
OH
etary
Chicago
Ġas
ĠMuslim
bergh
ĠHalloween
ĠTanya
Ġembar
ĠHugo
5295
Ġordinarily
Ġamongst
ĠÂ£
8291
Ġpartisan
Ġmonaster
ahualpa
Ġviolet
Ġbribe
han
isk
Ġrisen
iard
iping
ĠKAUFMAN
ĠgÎ¿ing
ĠWounded
ĠNDH
ents
Made
ĠRis
Ġions
Ġskyscraper
Party
Ġhour
Ġtrying
Ġw
ternal
Laure
3291
Ġinquiries
Monte
ĠTsar
Ġbes
arians
Ġwrath
etitive
ivery
Ġmegan
Ġreacted
Ġsciences
Hardy
ĠSonora
6224
ĠElementary
Ġ1916
ĠDunham
nold
Ã¶n
ĠDennings
Nature
Ġteleg
ĠFather
Ġretorted
er
Ġinterception
377
Margaret
ĠChamberlain
7798
Kon
Ġsprinkled
Ġfarmer
ĠSHE
Ġpopul
4874
1026
Ġtrusted
ĠLarry
Ġmurder
7959
Ġinsisted
ĠKel
5146
1671
Ġwarriors
7108
Ġtouring
Net
atered
Ġmakes
wig
Ġsucceed
Ġun
²
Ġcompletely
ĠRhine
4844
ĠSelect
Ġabode
6862
Ġgrouped
Ġrevolver
Turk
ĠQatar
Ġvolume
eri
ĠSindh
ĠGeor
Ġeleven
Ġboarded
gut
Ġmortg
5946
ĠIngleside
yster
Ġmirror
Ġquick
ĠMine
4881
Ġwearing
Ġblues
otive
rence
Ġn
545
Ġparking
Ġsometime
cules
ĠSachs
Ġcalled
Ġfundamental
Ġlakh
205
Ġmigr
Ġsteaks
Ġanomal
Spider
hael
Written
Ġcalculation
Firstly
ĠSoviets
6717
Ġretains
Ġmany
5170
ens
Ġcolor
Ġpaths
Ġprecisely
Ġtuned
umong
Ġinev
ĠKat
8851
access
ĠDra
Tunes
9215
tze
5762
Ġcommittees
aj
Ġ6
OUGHT
3819
Ġincarcer
ands
5949
Ġalmighty
ĠDobu
Close
Ġsunburn
Also
Ġlikelihood
000
350
5004
irr
Ġgreatness
It
1835
Ġkitty
7303
Ġha
Ġoptimizations
Ġscream
Ġinjure
Ġembodied
Mod
8756
Ġreadings
Ġkidding
ije
Ġdimin
Ġwinding
2642
yeh
1816
ĠPÄģ
roat
Ġdreadfully
urated
2935
ĠLane
IONS
vering
Educ
ucose
Ġpleas
Ġdistaste
ĠSuperboy
1746
386
osphere
Ġgraduate
6453
Jen
Ġalum
warf
ophon
Fran
1326
89
Ġelection
Ġsuck
Ġinterest
Ġscientific
Ġabandoned
ĠBor
ĠWoman
Ġscoring
omont
ĠAuntie
1109
imp
My
Ġbake
ĠLatino
Rome
Ġoverl
death
oldt
Ġrecession
Ġcudd
Ġstaple
ubian
apt
ĠKLAUSNER
ogonal
Ġsplashing
1652
ustainable
Ġreb
3980
Ġbeaten
ĠCoxon
Ġfin
ĠLola
Ġdad
sociation
ipper
ĠMarilyn
Ġdive
varo
4685
Ġmaps
ĠNian
5474
icab
Ġcalmed
Ġscar
ĠStudios
ĠNok
6907
Ġgeez
gery
Ġcereal
883
velopment
Ġtriump
ĠLarson
polit
1220
ultan
Ġconceal
Traditional
ags
ĠLev
ĠPolitical
4176
inged
Ġcrap
3153
anis
ĠSebastian
ĠVictory
Ġacquire
Ġdeparted
etown
last
Ġsmote
Arabic
Ġstepped
Ġcripp
8773
each
5301
Ġprogrammer
Ġgoverned
Ġvisualize
Ġcarbon
stein
ĠStation
Ġsize
Personal
ĠManhattan
Ġspeakers
ĠTrustees
ĠKib
Ġslam
ĠMor
4760
Ġarrest
ĠPras
ĠHorizon
803
set
Ã£
ĠABOUT
5494
Ġdisciple
ĠSurve
MS
Ġsneaking
653
Ġinstinct
3479
376
6340
Ġphon
688
Ġpigeons
ĠGarrison
Ġcircles
athlon
redited
cult
ĠBahn
Ġwoodwind
ĠAnch
7636
ĠNewham
Clearly
Ġfriendships
inal
ĠAusten
Ġpartially
Less
ĠFitzGerald
res
4228
Ġintrusion
Ġpinn
ational
Ġinvest
Ġfloating
gel
Ġhull
rice
Ġevap
understood
Ġnationals
Ġrelated
Ġgenerator
2708
Ġdeuce
Ġcogn
Ġorphans
Ġsentences
awi
ĠSear
Ġoutdated
mentation
Ġhomeland
1513
ĠSweet
ĠSavoy
booboo
ardi
Ġtree
ĠSis
cha
1171
ĠOD
Ġreacts
ĠArticles
ĠMelvin
118
down
ĠJeff
Ġhappy
ules
Quite
Looking
ĠStanley
powder
ĠAnything
isexual
ĠBased
1707
isement
akening
Ġche
6156
Ġtigger
Ġpete
3233
Ġtold
6253
ĠFaruk
ĠEx
ĠLincolns
Ġabsolute
Ġcompassionate
ĠRebellion
ĠMarion
Ġvanilla
Ġcig
ervation
Ġannounce
ĠKab
but
kreis
DT
ĠHebr
DOS
Great
2591
6855
CÃ¦sar
1493
conc
ĠRangers
igion
Ġcutlass
vati
ĠStop
who
Ġbast
ĠBrid
3949
Ġfigure
1048
Ġdreamer
Ġthermal
5296
Ġstunt
Ġcreation
Ġ36
Ġnegotiating
Ġfascination
Ã¤n
izio
Ġdespatched
thought
8546
ĠLund
Ġknocking
3157
Ġtrademark
5489
ds
Actually
Ġaids
itude
Tour
xter
1959
1799
Accept
ĠCav
intention
ĠRead
Ġem
131
7169
Ġchased
Ġreluctant
ĠBraund
Ġeng
4794
5651
6756
ĠFairfield
bike
ringe
Ġacademy
Ġpredictions
6181
aunt
ĠActually
zzi
Ġcorporal
Ġforecasts
iders
ĠTheatre
1169
ĠEnright
instr
1224
Ġbrothel
Ġgala
verty
Ġprecinct
Ġcollected
Ġbarriers
Å«n
Ġbut
stood
Deep
Ġhormones
elton
Ġrainforests
ĠRollins
Ġconviction
9166
Ġsectors
Kenna
Ġprinces
Ġchoral
epend
ricia
Ġofficial
Ġfarewell
Ġexceptional
ĠDarrin
instead
Ġkeep
221
Ġ1988
ĠShore
Ġdie
5579
ĠMino
Ġstriking
Ġboth
4980
Ġeight
2893
ĠSloven
Ġerected
ĠTownsend
Ġpun
hae
LaLa
Ġmatches
ĠLaver
Ġbrilliant
Ġdiscrimin
unkhwa
Ġrequiring
ĠCle
8131
Ġpresently
Person
oria
iation
Barry
ĠCapp
ĠDauntless
tried
Into
543
eline
Ġincreased
ĠDigital
Ġstarve
ĠCA
3729
knocking
Ġpeaks
Ġnorthward
Ġspecimens
uchÃ¢t
imental
4129
Ġtopics
Ġwildfire
Ġfranchise
7824
Ġschool
ĠGRUNTING
ĠAfter
arant
oland
Ġstraightened
Lovely
8169
Ġsuggestive
Ġsweep
426
Ġter
Ġgest
8437
ecca
3244
7425
ĠEastern
Ġdisagreed
abella
3100
ĠInt
1231
gically
ileita
Ġtreasures
Ġwhite
kitt
Ġfrightening
Ġclaw
ĠTrudy
Ġavenue
Ġbreathing
Ġregistered
ĠRyner
umbo
Ġsubtract
ĠRichie
inv
due
ĠHeath
ĠNorthwest
ĠPresidency
ĠCourbet
509
Op
ragm
Ġsenses
Ġlineup
ĠStill
ĠDorudfaraman
ando
Ġlash
Ġcreated
2937
3333
Ġcommerce
kuy
Ġend
ĠRou
Ġliquid
ĠLinux
astically
Campbell
David
kee
Ġwilt
Ġnewspapers
ĠShin
Ġarguing
Ġmannik
ĠMove
Ġproved
Ġlibrary
Ġequipment
yours
Ġtwenties
1519
Ġrelegation
Ġstrict
ez
Ġstatic
zerbai
ĠScotland
ĠLad
6251
Grant
ĠWright
Ġwraps
ĠJulian
Ġunbelievable
5424
4305
1669
ingers
Ġphilosophy
Ġpanels
Ġ218
ailure
Ġcitation
008
osen
Ġdisp
Ġchuck
ĠHitch
Ġskirt
izu
ĠJapanese
ctive
itans
Other
Ġmice
Ġresource
careful
Ġdatabases
anish
William
Ġinterpret
6489
ĠKali
Ġcheese
Reb
Ġscreens
ĠMesozoic
ĠDaze
Ġrestored
idodec
Ġpee
asher
Ġbotan
Ġmerge
Ġreferen
Ġbul
rifice
2374
Ġperpendicular
3423
ĠMore
Michael
Ġ99
Ġnost
Ġcyan
8120
Ġsplin
Ġturn
Fighting
escue
Ġadministrators
1831
Ġfailing
Ġlinguistic
Ġgem
ĠTink
ĠNavy
ECAUSE
Ġgrowing
This
Ġgirlfriend
1295
Ġjudgment
2058
9004
4848
1790
ien
achman
Ġbeetle
6184
meeting
7679
2461
Ġinhibit
Ġafoot
ĠJie
idding
7050
Ġadjoining
Ġcaffe
1819
Ġsensory
Ġslash
Ġdis
Kentucky
ĠTas
Ġbeside
Ġtactical
ĠSumatra
Ġsplits
8352
Ġprize
ĠMercury
ĠSUDANESE
Ġincomp
emoiselle
church
Ġbiscuits
Ball
ĠRanges
bral
gown
Ġbending
Ġfertile
Ia
4608
Ġfoot
issions
shire
Ġfootprint
4946
Ġspelled
Ġhemisphere
ĠWell
1046
Ġaccident
5375
Ġemptied
weep
ĠNeck
Ġacting
Ġgenital
Ġtradition
Ġemu
Ġprom
Ġillumination
vals
5825
4758
Manuel
There
Ġcurtains
Ġtimber
Ġhect
Ġgluten
Ġobjectives
Ġspecified
FA
ĠAf
ĠEngine
uga
ĠZur
fton
Ġsm
ival
ĠCOU
Irish
Ġwrite
5713
Ġspraying
¡i
iting
Ġheels
ĠKin
later
ĠNah
499
Ġearthquake
UNDER
Ġpaddy
Od
ĠBeec
ebe
BETH
ieu
ĠGerman
Kate
ĠMethod
Ġcourageous
ĠRhin
connected
LA
Ġqual
7292
2508
ĠNEED
Ġrehearse
Ġland
Ġrh
PEN
Ġba
Ġtourism
been
ometimes
Due
Ġintens
Ġinc
Ġquietly
4110
ĠBall
4349
ĠWorker
Ġfre
Ġ313
Officer
Ġpatents
oubt
peter
ĠPhilip
Ġpsychiatrist
ĠWalsh
Helena
6108
OK
Ġpersuaded
1931
Ġangle
hibit
3492
Tak
6358
Ġgrove
Ġkills
ĠIt
Ġeconomies
Ġembod
ĠXIII
crow
Ġsandwiches
Bol
Ġdisappointment
Ġweighing
Ġcommunal
Ø¹
Sit
ĠSerra
Dunkirk
ĠElisabeth
ĠAfghan
adena
ff
Ġcling
Ġfooled
ĠNorstaad
2886
2729
3737
uders
fa
fright
6380
ĠMoreau
2540
Ġinsur
ĠFalk
HAL
itial
8253
olar
itya
7713
ĠBis
ĠAk
Ġofa
Ġdelic
Ġtelephone
ĠÂ°
Ġdra
ORD
Ġfolder
Ġcopied
ĠPhiladelphia
*
Ġmiserable
Lake
History
Ġbelow
Ġhostilities
Ġharassing
Ġcoached
ĠThornton
akk
ĠArchitecture
680
ALS
Ġhatched
ĠZa
CT
6822
urbs
Ġadmits
ĠServ
ĠJonah
26
Ġexchan
939
Ġdressing
ĠAmp
Ġfestival
6421
Ġrind
onnaissance
import
Ġtransparency
strong
ĠCzechosl
rika
ishers
Ġsignal
979
ALL
lic
Ġremove
ĠHogarth
lement
ĠSarria
Ġflor
[...]
